3D60E304
BD95B3E1
3A1741D1
3E98C5A8
3E0AFBC2
3E108851
3CAA8EB4
BD78066C
BD586983
3DCEF0AE
3E92C8E7
3E236545
BE0C8F75
BC20F4D8
3DEA1273
3D2176DE
3E890D9D
3D51E215
BCFA9197
3E1A5269
3DDFA333
BD8D6B23
3E6B66B6
3D996E9C
3D9DEB53
3D0D0DD0
3E23DFB1
BC65DE16
3D9E9292
3D4BF6E4
3DC26FE7
3D21F080
3B98A223
3B9BD838
3E24BA52
3E22FD33
BE4B089A
BD3E1DA8
BCE92F6F
3CED3954
3EC7D3B3
3E047C31
BE84C964
3DC41F64
3D751BD6
BDA2EC29
3E7F97EE
3E37BFA5
3C149E88
BDC41C3F
3DDA1A93
BDE46067
3E32B51C
3E3E0DAA
3DC9CD3E
BD996C83
3D9BB8C3
3B81882B
3DBE54B5
3E1775FB
3BC6F7A1
3D93764F
BD7BDAD7
BE62DA98
3D774CD3
3DD5AB7E
BE0422CD
BC052F7F
3BBD87B5
BE658D58
3DB2F449
3DDB9B67
BD164628
3BE1B4BB
3E08BEB6
BE401648
BD34C5DA
3E01897A
3E18090B
BD9CFE58
3E0A6E33
BDEAC3A8
BE11700D
3E36F71A
3E69C94F
BCC5E2CE
3DB4DF05
3E263FDD
BCF5989E
3E3B6E50
3E9E7EA6
3E23AE25
39B45AE6
BE8F4E44
BE283B1D
3E5572DE
3D6B53D6
3CD77D95
3D1117B5
BEA814F9
BE42517E
3D76D43D
3D889CA2
3D49ABB0
BDCAB4FA
BE705C89
BE3C0CE9
3D99591D
3E8278D1
BD204D12
BD3FAC1D
BE9B83AE
BE8404A7
3BA53FC0
3E6CB429
BCA69DF9
3D2F965B
3D11D042
BD86D374
3D5B024F
3E06E71D
3D372A39
BDDA3B9B
BE643676
BE7EBBFD
3D6F9CA6
3D300BCC
3CB65882
BE03C4F4
BE29B068
BE87C244
BC0F42FF
3D7AA8A8
BC92CADE
BE00E886
BD35DBBA
BE4C460F
3CC940BC
3DBCF2D0
BCC5B4AB
BDB29889
BE22A62B
BDAF0B6B
BDB6C482
3D2F3908
BD9BF594
3D990EAA
3E0F266C
BE07D285
BB78726D
BDC979E1
BC54AE43
BD1C4007
BD4B630B
3BF08CC5
3D0D5F9A
BE3E557E
3CCFE9B8
BD9F5C6C
3DA36C9C
BDCFC265
BCAD794A
3D65FC7E
BBFBD274
BA3BB1F2
BC987E7C
3D026CC2
BD7F26F2
BD3E9963
3D1B5C7D
3D064452
BE16C15D
3D6DB403
BCBA6480
BBDB0575
3AE29F9D
BCC22CCB
BDD613D3
BDB0153C
3D13A2E0
BCEB7ED4
BDA27393
3D998C7E
3D0CF28C
BDDEE0B1
BDAC98E5
BBAFB3B7
3CE49907
BD8E9707
3D923FEE
BD078D93
3D158213
3D8E2E2C
3DA26E54
BD80A41A
3DA04EA5
BD73D8E0
BD7CD9A5
BDA34B94
BD2FCDEE
BCBCE853
3D9C914B
BC18F1D4
BB68A71E
BDC2456F
BD555B46
BDEB2420
3D35F0B3
3C6B6391
BD9817B9
BDBCAFB4
BDBA1C26
BD863AE2
3D8933A0
3D7F61AA
BCEAFEE7
BE60EFDD
3D3D1783
BD470DA6
BC949A56
BD9E4A38
BDABF983
3E1A0275
3E111A54
BD24B33E
BD1B20B8
BD971540
BDE0FCB5
BCB08356
3D16616B
BCB3DD12
3D5D3459
BE2A7115
BDA78C00
BE388BDB
3C718CA0
BDA6783A
BD588A05
BE0FD9BA
BD683F4F
BE8DCEE1
BBF3B214
3D15CA6D
3CB47842
BDCFB331
BD19FF50
BE42A993
BDA14BE0
3DED490E
3D1E54B5
BCA67408
3D9F78BC
3D3AC3EB
3D8B4AED
3D97FCFC
3DF5842B
3DA4CD75
3D90EA9E
BCAB6284
3D9BB731
3D6A50D7
3E13454A
BBC532A5
3D52DCB1
BDFE974A
3CB63F57
BD57D9DC
3E1668C2
BDE3BD5A
BDB34480
BDEE49F5
3CF3F0FE
BD93A2E0
3D8205FF
BE41FF71
BD81FD15
BC90D38D
BC8CCBC0
3DEAAB04
BD9EB6BF
3E218EFC
3CC0AAEB
3D7E6927
BD7228DD
3E3E889C
BDC2F72B
3E4ACE68
3DA5A2D7
3DBE657C
BC839ABF
3DA6748E
BE043AEB
3D3BBF94
3D0C77DE
3CEAD0C4
BC2C42EA
3D937E2C
3D369A91
BC271151
BC4A9AC3
3C069835
3D884407
3D1CEBFF
3C2497FA
BD8B3700
3D96CC60
BCAC5C14
BD330F8C
3CAA5E78
BCC2CA15
3C51FA33
BB9E5E24
BE35918A
3D0D8BA4
BDDCE52E
3D88BDA9
BE28CE2D
3DF6A594
3E43A472
3D39EF0F
BE3AA088
3DAD0BB7
BE1868FD
3D5FA11B
3EA7079E
3C92E83A
BE1C319C
BD4BDDBA
BD60B3D5
BD664F55
3DAFEE70
3D922963
3C4E0B91
BD87D3D4
BC89C800
BE2BF013
3E18904F
3CC8CB4B
3CEF3F53
BD22D517
3C9F4906
BDDC12F1
3D2E0F3D
BD63EC03
BE003C4B
3CBA92A3
BD821188
3CA28134
3C6C397A
3D65742E
BE1EA961
3E059253
BD99E1F4
3B50678C
3E4AA21A
3D86CF42
BE0F4C2B
3D91C9F7
3D6135DB
BDCB6E93
BCD20F2C
3DB83ADA
3C20F4D8
BC986B9C
BD0055FC
BE8FB0B4
BDC2FA51
BC9841AB
BCCFC1DF
3DACD5B7
3E0E7792
BE5200C1
BDCDA5DB
3D334613
BCE30EC3
3C998D04
3D079B35
BD68D10F
BBFD5454
3D106573
3A9E774F
3CB13598
BAC521DE
BE374214
BE3BF551
BD62D517
BB0EDE55
3CDA2728
BE3C1A48
BDA4523F
BEAC1AAC
BCD8E432
BBC73ABD
BD747A5B
BE3EF06B
BDBAEAB8
BEA8B008
BD884407
3CDFCA00
3CEF1349
BDA6D9BE
BE22D3C8
BE04C3C2
3CCC76D1
3D15B680
BD3A7009
3E23B7D8
3C36A61A
BD200086
3E26F502
3C7294DD
3E580ED0
3E7FFE2A
BE3EC072
BE2C92DE
3DBD6495
3DCA6D26
3C9F01B8
BD64D5D8
BDE2E1AC
BEF823EA
3BDD1E54
3D060AA6
BDE0B674
BE86F651
3C44B902
BEC37825
BDCDFE76
3C41CE6C
BDA308FF
BE974235
BCCB70AC
BD8D1527
3CFCF3DC
3DBAA9B5
3E3DCDF7
3E21565C
3D9932D7
BDD5DEDF
3DFEA897
3EA00C74
3EAE659D
3DD4AFD5
3DA310DC
BD889E34
3D9BBE01
3DA157EF
3DC091C1
3DB36588
3D3DD873
BE0414E8
3D24AADA
3DB6A9C5
3D6F4ADC
BC8370CE
BC068FD2
BE379DD4
BCEF36F0
BD54195D
BBE64B23
BD686D72
3B81CB47
3BDD15F0
BD44039B
BD133F42
3D427957
3C7AFC8B
BC9CE4A8
C01DFA48
BCDF17BE
3C3DB5D9
3E09DD3C
3F10D035
3DA6B93D
BF0125BB
BD96C615
3DE97742
3E49C305
3EAFBBF9
3DA7CAEA
BF0613E4
BD88E369
3E709BB7
3E028A1E
3E939F12
BD0FA483
BEB16A8C
BD9E73A3
3D8F2F12
3B8B3B32
3E388CE7
BD5DB984
BD4C9EAA
BD02A993
3D3A732E
BE49C6B0
3C88C826
BE12656B
3DF095AF
BD5AA92E
3E8260D4
BE0195CD
3E14CCEE
3E34B1EE
BF119221
3DC3C969
BD949518
BE740E17
3D173D9F
3E036B90
BEB1B1B8
3D2E5797
BDD1F03D
3CF2A5A4
3E2893FB
3E1CE747
BE5162F1
BC31140A
BDCDE3B9
BC4DD93C
3CC5C78A
3D30D951
BDFE0371
BDA617C2
3E021B7E
3D70F7BA
BE6A0BE5
BE4112BA
3E03AD5C
BD516228
3E5870DA
BF3769BA
BE9434E3
3E21BBCF
BD859B80
BD348C2E
3D2EDCC2
BEA94DD7
BE667E41
3E9779EA
BDF11E00
BE034A45
BDCFCEFB
BE9695B8
BD5F5DFF
3E7CD24E
3D902928
3D593F6C
BEB43ED9
BE78F191
BD1A9A80
BD718FC5
3EB4751D
3E1A37AC
3BCB31C2
BE6609DD
3D82ECAF
BE937048
3EF7F866
3EE29153
BEBAE947
BE25C811
BE66759B
BE4024B3
3EE17D4A
3EA35504
BEB234EC
3DDEC700
3C6A4A8C
BE47179C
3DAE12E8
3EBE9814
BEA01FB8
3F17939A
3E58982D
BDC0D4DC
BEBA832C
3E342B30
BEE8B392
3EF337EB
3EEB7521
BE8E312F
BDACCE5F
3E612F90
BF3F0C13
BDE647FE
3F635EC8
BE4CDEE3
3EF2131B
BC9552E3
3E0AFC8B
BE2960B7
BF16D1D0
3E52FD33
3F14C62E
BEA1A3F4
3E392FB2
3EBF878B
BF47B42D
3E8B63F5
3F349918
BE5DBDB6
3DE09678
3F39246C
BF28A255
3EE86C87
3E92580C
BEBEA982
3F2DC62A
3F41CB58
BE95BF8C
3DFD5348
3DFEDFA4
BDA151A4
3F40140E
3F5BC409
3C09331A
BE1187E8
3EB541D9
3CF92AFA
BBF57710
3BD58C8F
3B1EECC0
3D0D1C7E
3FAC1859
3CC1700D
BE2BEB18
3CE4B663
3E5653CA
BCA0125A
3D416F00
BD0EE06E
3E39E4D6
BF0E32F4
3DFFA094
BE0B68CF
BE697FA6
BE38D046
3E181E8A
BE98BC5A
3E57368B
BE1BE48A
BEF93965
BB0C60CC
3CF5D13D
BEB6AB7A
3E417CE5
BE284A94
BE87457C
BD1320DA
BCB83CF3
BF0DEC70
3E89EE24
BE0F30E8
BD813C25
3DC80065
BE9386D3
3ED34B73
BDE90710
3E6F340D
3EA32895
3C304EE8
3E78294A
BE8A6699
3E03BD9D
BDD5DF65
3DFC4546
BDA91E21
3ECD32E8
BECAAD1D
3DBD694D
BE2E2542
BEFC4ED7
BE7414A5
3E08C048
BD135222
BE08A32F
BD8EE957
BEC7470F
BDA4473D
BE19374C
BE3382A1
3E32E126
BE3600F3
BE23CA32
BE11B2A2
BB373D19
3EC75643
BEA88744
3E7A02FB
3F3AF09E
3D642AED
BEA4113C
BDB81A58
BED1AE2E
3D737543
3EDE7D56
3E4144CC
3E484D34
BF0A80F1
3BEFE500
BDC42071
BD94A559
3D0FE47A
BC17635E
BEA15E5B
BE8115DF
BD7266BA
BEA69DD8
3AD60A63
BE422963
BE332053
3CD66278
BE1B43D9
BE8677F7
BC901D19
3E223465
3F301334
BE1C9364
3DB21B3B
3EB6B207
3DDF290B
3CE9680E
3EEDE97D
BD98BBD4
3D93C3E7
3EBC4418
3E16D224
3E2760BF
3C39E061
3D102689
3E1232D3
3D3A9F38
3D757D5B
3B492147
3CE8BE2F
BE05703F
BC6CA687
BDA8D8ED
3DBC0981
BD9014B6
BCC6CFC8
3DB78A2B
BC87A4A5
BE333FC8
BDEA3CEA
BE475C07
3E998D8B
BE285EC4
3D4B9453
3E31C21A
3DC86BDF
3E075F70
3F1E64E5
B9E410B6
BE72C40D
3EC549D8
3DD6B873
BD1E2047
3EB8407D
3D0C62E5
BD87C73F
3C7DA405
3DBF0ED4
3C58FD5D
3ED4855E
3D0BAF96
3D462A1B
BE2C2F40
3DB83CF3
BDDF82B2
3E350EFE
3E081301
3E2C8A7A
BE0EBF23
3B77EC35
3B371B8B
3C18A223
3C991149
3D0F3CB4
3E348627
3DA9FB61
3DAC18F8
3E0C942D
3E0DB121
3E6369FD
3DA60C39
3CE1A60D
BCDDE15D
BC84C6A4
3DF6D331
3E117BD9
3C70BF1A
3DD54B8C
BCECD291
3D179E17
3DCD7625
3CAB2BFE
BCCB20FB
3D8F5665
BC203819
BD2E9CCB
3E1AC7DA
BDEBD018
BDB8D60A
BD8BFB16
3D8C2614
3D8F2389
3CA007DD
BDFBADC1
BE644956
BE11847F
BCF90FB6
3E91A5A9
3E685A92
3EA11EC9
BD0301A8
BC5A2728
BABC382A
3ED88AAD
3E678F69
3E232A8D
3D9A6CE3
3D3192EA
BD7BE447
3EB6876E
3C00E497
3DCD2D45
3DC66D37
3E527C7C
BDD74DE0
3E8C7C95
3DA74AFD
BE3DAA50
3D854930
3C1042D9
3D963800
3E1F89C6
3D5C7582
BDD4C3C2
BDE02214
BDB4E8FB
3B057F30
3E8BB795
3E8F58E2
3E912839
BE8B7C78
BCAA66DC
3D92E9CD
3EB92AD8
3ECB5697
3E5EF998
3D4B545C
BD170C56
BD2FEB4A
3E92FC26
3E06EE31
3DC9289E
3E4A6613
3E2C01A3
BD943287
3E323CC9
3E9E9A4E
BE1F3D7D
3E7866E4
3DAF837B
3D241E58
3E13EB3A
3E847BEE
BDD9D2BF
3DAEFF5C
BD98A43C
BC779852
3DB06DD7
3E9FE825
3DF69A0B
BE8AF901
BCDC8323
BC797679
3D68650E
3E82BB23
3CCA7F80
BCD5D5F5
BAF57F73
BBF70154
3D87A52B
3E861826
3DF8B934
3D6A3AD2
3CA452C6
3DD0531A
BDC719B5
3EDC5847
BCC05F6C
3E707C42
3E03E426
BD96B229
BD9318FC
3EA4B59A
BD93F4AA
3EA7455A
3DD39C95
3D0A99B7
BE800043
3EAD8772
3CCFD2A6
BD872C95
3DA4ABE7
BD805815
BE962D41
3EA1DB87
BD0A3E7D
3A3E0DED
3D873FFB
BDBE718B
BE82EA10
3E5AB325
BB47D1BB
3D8F7660
3D872A7C
BD5F9BDC
BE849F30
3E99307B
BD3E7E20
3E4F212D
3DE74C90
BDE394FB
BCCD26FA
3D9D5CB8
3DD08F65
3E998C5D
BBCBF2B2
3C9B3D08
BD03A96D
3CD2B90A
BD397CC4
3EBE9857
BE509C80
BCD1569F
3C97EBAF
BE7086BE
3E62A51E
BDAFF434
BD94B407
BC9CDE5D
BCBFA2AD
BD9E8E61
3E464AE0
3E97E415
BD62595C
3E145FE1
3D80F345
BD74E11E
3DDA365D
3EBB0A0B
3CF2EF0B
3E625B75
3ED2428D
BE552264
BD741398
3E63686A
3BED99CC
3E9ADD7B
3EB98E11
BE8898D4
BDB5171E
3D8ECD08
BD3868FD
BD63F35A
BE1E3EF3
BE5ABF34
BDF85511
BD980CB7
3CABE8BC
BD0B7C35
3DB859C9
BE40713F
BE2F5F91
BF04195D
BE37CD46
BDD2F2B6
3EA9BE2B
BDF8DF7A
BE57B4E5
BF56F73C
BE18B71C
BE1F3776
3E954046
BE23A798
BE81F31F
BF1558FB
BD90A99B
3D1D1D47
3EB5D0D9
BE2D7668
BE564AE0
BE221DDA
BC53415B
3B05D313
3DE1A262
3EBCF9C2
BD87418D
3E83B0E6
3D884599
BE254691
3E306424
3EC846E9
3D305858
3E263561
3E2D0D4A
3CBE0BD4
3D16C1E3
3EBA2A0B
BD60B3D5
BE3FD36F
3E1A13C2
3E028A61
BE1009B3
3EA6C43F
BD86F933
BE2FA051
3CCB9ECF
3DAF3F53
3DD12F4D
3DF44029
BD0C6E6E
3C11819D
BE369942
3DCC2D6B
3E8C9BC7
3D4D9514
3E5C74FB
BE7FE08B
BE08066C
3E1FAB97
3E174E66
3D9A4D6E
3E85F916
3D946801
BD923359
3E94AAFC
3E89D8E8
3CB3E9A7
3D1D55E7
3D44D65E
BDB37543
3E0A337B
3E55271C
BDD47410
3D600193
3DC01DE2
BD8878FB
3CFB58D1
3E09DDC2
BDC52F7F
3D4EFAA4
BDC2A1B6
3D9905C0
BBF51266
BDA5CD4F
BE277708
BDF50093
BCB415B1
3B378034
BA8CC576
BDE3369C
BEFB8DC5
BDC481F5
3DFFD47C
BDF1C087
BB89F40A
BDC99286
BECAB628
BD89D389
3C1F5DFF
BE4F4A99
3C515F03
BD7D5561
BE541B33
3CD48238
BD1D084F
BE478898
3E30B6FA
3DAB0AF6
BDDE48A6
BC5FACA3
BDD9C7BD
3D4382A1
3CED97B3
BCB443D4
3BCD7492
BC7AD6CB
BE33D3A2
BC883FD5
BD34BD77
3DD02F73
BE3768E0
BE64BBA1
3E1E2585
3B605469
BDD50E34
3D942246
BE5F316E
BE72AC32
3E2CF5F5
3B2A8651
BE1744F6
3C2B649D
BE1722E2
BE55BB38
3D0CE0B9
3D11819D
BE1DC22B
BDBB506E
BE03E575
BE94DD0E
3E20129D
3DED4F59
BDC4B87C
BDF4C4CE
3D0FF866
BE1CA70D
3E50B999
BD9D230C
BE56E610
3E3ACFB7
3C8A6FC6
BE54EF46
3C8B0F28
3D0AB1D5
BE93CD36
3E231A8F
BCAA9931
BE2AA194
3DC6DB51
3DCFDC16
BE5C14C6
3DFFE111
3D0B1AB1
BE4F3ECD
BD98DAC2
3E19EE03
BE4C371E
3DDB7C78
3DE97311
BE9F2496
BCD7C4E3
3E13AA37
BE146413
3D2071C5
3DB3BA77
BE4658C5
3DB38583
3D3924AF
BD4409E5
3E9A274A
3DDA3C21
BE14C511
BE476D11
3E272E6A
3BDE3B8A
3E8F29B3
3DFDB552
BDACC0BE
BEAC5F18
3D7EEA21
3CDC69F9
3E823E7D
3D99420B
BDDFDE72
BEC2A1F9
3DB47D80
3CB59147
3E34167B
BBD8BA41
BD9A493D
BE8F138C
3A7062D4
3A5844D0
3D259F2C
BDA6B1E6
BC9ACFFA
BD87CA64
3D96E610
3CD95140
3E4F598A
BD13DD98
BC4881E4
BE262E90
3DCF15E8
3DB044F2
3E380CB7
3BD1E109
3E007747
BE90EC74
3C82B841
3E2DA986
3C01A9B9
3CB43B71
3DAFCE74
BE1477BC
3C0C32A9
3E24228A
BD7A98EE
3C966BE8
3E0A24CC
BDBDE050
3D253650
3D34C4CE
3C670C13
BD2BD2B7
3DDBC44C
3DADB61C
BCBF1A5D
3D10928A
3E2705C9
BDAE1049
3D9B1290
BE116FCA
3D1D798E
3D9719F8
3DC3F466
3B9B280F
3E1BACB4
BD9B951C
3DB06035
3C94D50F
3D6EA748
3DD9780C
3E0ED0B3
3CE12E84
BB7605AB
BCEE6751
3C19B6F6
3DBB4DCF
3DDD93C4
3D092253
3C419C17
BBF14552
3E07A5F4
3E013DB8
3E57DF1A
3DCF08CC
BBEF911D
3C306C44
BCA84381
BCE924F2
BD4CC682
BF7B02A3
3E04E981
BDAF3882
BE545BF2
BEC0A4E3
BD2175D1
3F22187A
3D191794
BE52A27F
BE236651
BEDE1998
3C55F56A
3ED343B7
BAC0CE92
BDB53CDE
BE1C4E2F
BE9D3650
BDB47F13
BDE563ED
3D327137
BD96EF80
3EC36156
3D0E7CD0
BE7833C6
BE68C155
BB931013
3CC9DBEC
3EA7D391
3DCF8BDF
BE209353
BDA6C1A0
3D9F822C
BAFEEF5F
BC9E85FD
BEEAE18B
BD11D580
3F3D1633
3D89FD7A
BE08E4B8
3E1FDAC7
BE92C53B
BE3CD20B
3EA9D734
3D8B08DD
BDB4213A
3DAD551D
BC9DF549
BDFAA8A8
BD688377
3D808180
3D5BAF53
3EB51394
3ED89396
BE92A8CA
BE4BA776
3CFCD035
3C6B356E
3E4B6FE3
3EA93BC1
BE19E1B1
BE3B1E9F
BD30F063
BDF6B1A3
3D9B8994
BEA7E1DA
BE79817C
3E97EB29
BCC0D4DC
BC942D49
3E89E3C9
3DD75FB3
BDCAD927
3CEFD220
3D871A3B
3DC47CB7
3E683F0C
3EA133C2
3AD130E0
BC5EB0FB
3E1F0E0B
3DCEA316
3E23BE66
3F2AA1F9
BE8116EC
BECBCB1D
3D2F33CA
3DEB3CC5
3E5C4E72
3E91E29B
BD860BB3
BE1CD3E1
BE382E88
BDA00757
3C03A10A
BE406317
BB8B3B32
BC7CF80E
B8C9539C
3DF2DB1F
3E924F44
3EB6F933
BDA51655
BBF4BE83
3D7A6699
3DBFB15B
3E8F2B24
3F2BF477
BC8FB00C
BDEC93A7
3DF14A0A
BC720EA6
3E424F66
3F119A31
3CBEB9E5
BE9ECFA7
3D6F4385
3E4FBA88
3E692642
3E685EC4
3E41E81D
BDF7A787
BE136EF8
3CAF5BA3
BC98C9FB
3E5C18F8
BE200CD8
BCE5907E
BDAA47ED
3D43A216
3E4BC0A0
3ED995EE
BE2E17E3
BC4FA26A
BDA3F5F9
3DDBCDBC
3E8717DF
3E89D042
3D84AF0C
BDAF7B18
3DAFFEB0
3D6F294E
BE16C615
3E6234EC
3DAD7732
BA727BB3
3E28FD5D
3DA8FA7B
3CA120E2
3CDC69F9
3CEB0D95
3E2D9381
3D44E93E
BC991149
3D38769F
BC9971C1
BC516335
3E7BF65E
BDBDCF89
3C05B185
3D7A072D
3B9539B9
3C4F9E38
BD5F7C67
BB714DB6
3C960FA1
3E00218E
3D2875D5
BDF8D1D9
BD863950
BD95C747
3D13E5FB
3CD42C3D
3D88CEF6
BC9465E9
BDC477FF
BCD26959
3D813448
3C6FA616
BBD594F2
BDC348F5
BD95104D
3A76AD71
3C8EA39C
BCD34DF0
3D10D38D
BDFBF8BA
3D2CA255
BDB89E77
3D247CB7
BCC90E67
BDA6D8B2
BD09EBA7
BD62D83C
BD8CA0C3
3D5ED17C
BC003CD1
BDB0574B
BD52849D
3C9CD1C8
BD555E6C
3D1BA1B2
3D689A89
BDBB6028
BCA491B0
BBEC6BCF
BCC2352F
3D8B4203
3D501190
BCE34118
BDF1F688
3C00346E
BD566F0D
3B3C7B46
BC6DE54B
BC99D452
BDA7E7C0
BDA378AB
BC369DB6
3D7C30D3
3D45F4A1
3D155715
3D210E02
3CF88DB0
3D1F06F7
3D9914F5
3DADBB5A
BBC25072
BD89613D
BCF5E204
BD2B40F6
BCDABC0E
3D9F3C71
BD9BE76D
BD8CCC47
3C94C016
3D37A4E8
3E0AC96D
3D1F2FDC
BC0155D6
BD28F29D
3CDF41AF
3BB0079A
3D85FBF8
BC09331A
3C7B3743
3B8DB057
3D18E64B
BC52E0E3
3B82E01A
3D7F10ED
BDAE2B8C
3D933D29
BD0F1D3F
3CB65ECC
BBAE18AD
3B9AFE1E
BE1961C3
3CBE8145
BD35818C
3D1424E6
3D3FBACB
3DDCAEA7
BDDB8CB9
3CF0C565
3B96AAD2
3CD50657
3DA3EAF7
BD04912A
BD938CDA
BC6B7026
BBE2A800
BD6FCCE2
3D0169C2
BDB0C027
BC948DC1
3D6C6152
BDA53A82
BB5B5958
BCF00475
BDC5E3DA
3D7C0D2C
BC8FF328
3CEA4873
3D394424
BC41094A
BE11001D
BD3C408E
BC2C258D
3DB308BC
BD948238
3D5BEC25
BD7A3982
3E11D9B2
3CAA4767
3D8E29FA
3D278E19
3D4CFE15
3CC5E0B5
3D8F28C8
3DAED139
B90A697B
BCCF28C8
BB80AE10
BD15E4A4
3D24F65A
3DAEA961
BB909AED
BCFD9FD3
BD3ABC94
3D3B02D6
3D12DFD7
3BB2745C
BF441E79
3CC90E67
3DE1815A
BE4CB189
3E678F69
BE9EF34D
BDE4B125
BCF5D356
3C9AE925
3E216E37
3E2067CF
BE7AB96F
3D95104D
3D70A6FC
3C4FD8F1
3E13150E
3E49F8C2
BDF3DEA4
BD20A527
3D868F4B
3E737E6F
3EADCE7D
3D66698C
BDCA7504
BE94B274
BD8DE764
3E4289DB
3DC8D5C7
BDECD856
BC3F8338
BE55271C
BC9EABBD
3D3A2596
3AED80A1
3ED37803
BE9A73D6
BE64F441
3D5F8099
3DD7867F
3E698B72
3E7B955F
BE03D923
BCDAFD11
BD6A4873
3BACAFF7
3E1D8948
3E46CEFF
BCDA5333
BE82B820
BBE15012
3DE8C79F
3E1358F3
3DC8EC53
3CB68F08
BF12CFD9
BDD043E5
3DC60C39
3E28CAC5
3D9CBBC3
3D8FA2F0
BEBDBC66
3E07BBB6
3E4D81F1
3D462C34
3F01798E
BEBF928E
BDDC7CD9
BDDE8039
3D4B08DD
3E0A76D9
3CB6006D
BC49ABB0
BE615CEA
BE463172
3DC8BA84
3E297B31
3D56FA83
3E162281
BEA33AAC
BDACA9AC
BC0EF77F
3E55EA68
3E867DDD
BD3DB6E5
BF05F4D3
BE4B1AF4
3D9103C9
3D05692B
3E6B6284
3C8B71B9
BEEE8CAC
3DD20E1F
3DC16A48
3B51E96C
3F1C0043
BE3E742A
3E00CAA3
BD9E3FBC
BD6B2E17
BCC230FD
3DD8793E
BD98D046
BD118B0D
BD746562
3E241701
3E7B3EDE
BE22CCB4
3C1ED7C7
BDDAB29E
3CEA7CE1
3C43D684
3DB749AE
3DAE7A31
BD1A554C
BE96559F
BC7AB53D
BE5C6FBD
BE8B0CED
3EB7B1E2
BE210A9A
BE7658C5
3C25D28D
3D973D9F
BDFAB53D
3D1017DB
BBA42AED
3D9F4906
BD9FC548
BD89B307
BC98F3ED
3C9C9D5A
BE52F017
3E0EBAAE
BDF94D94
3CA12F90
3E83A216
3D141E9B
BD845C36
BBF8F8A5
BDD93FF2
3E114446
3E0BEDFA
3E6D8C6D
BDA6ED24
BDA4EB57
3D88C048
BD8E67D7
BE94BD98
3EDC5EF6
BDF9591D
BB90DE09
3D2D9275
3D256367
BC3DAD75
3D4C79F6
3B4E1C58
BEA1A08C
3D0534BD
BBF190D1
BD166384
BDC6466B
BDC7CD8A
3C9BF7AD
3D326BF8
3C9E8816
3CCFB763
BDD404EA
BD98AE32
BD12A305
3D881DC1
3A566F0D
3DB8E8EA
3DE1DF33
BDF27BB3
BDA9D6AE
3D9B2032
BC415D2D
3E5E4324
3DB32D6F
3B694EE4
BD21F3A5
BD8A2B17
BDFE03F7
3DE1E604
3C4F7879
BD07FBAD
BC43760C
3CF15832
BD9BA776
BD5CAD15
BE1B8DC5
BE2B9D3D
3D1B09A6
3D13F4AA
BC451548
3E549774
BDB669CF
BE32C5A0
3C2936C6
3D69E2BD
3C9ED9E0
BD6EDFE7
BCEB4635
BD56861F
BE06D331
3DCD98BF
BBB94531
3B78B589
BD45F395
BD2DC6E3
BDAB8499
BC1802C1
BC977857
BCE277C4
BD160957
BCA6809D
BD8C0379
3CF64064
BD87FBAD
BDBECDD1
BD44F8F9
BDC346DC
BD468EC5
3D7E718B
3C817B96
BCC9081C
BDB8C650
3D5C2B0F
BD609DD0
3E05A9EB
3D4C857F
3CC9D389
BC548CB5
3D27685A
BDA9F517
3E0759AB
3D3214F0
BCE51090
BDE9F517
3D592FB2
BDCF3D3A
3CA1815A
BCF65775
BD9A7653
BC9CBEE8
BD664B23
3C742353
3CD96638
3DBF316E
BE2F3DC0
3D0387DF
BDA74D9C
BCAFF2A1
3C54F15E
3CD9F2BB
BD895076
BCE38EB0
3D94488C
BD4E8EA4
3DC3BABA
3D66C8F7
BC2F9229
BC5F19D6
3D1AB6D0
BD8E1D65
3D8E3476
3C5F6DB9
3DCE3B47
BC369985
3DDC28F6
BD99B131
3D65625A
BE0FB82C
3D551612
3DF1B9B6
3DCCF5B2
3D976039
BDCFB092
3C3FA8F8
BE1CAE21
BDECAB3F
BE005D96
3C84FF43
3CA450AD
BDDCEA6C
BDC99BF6
BE2945FA
3D799C39
3CEBF877
BA3BB1F2
BD8BD44A
BE4791C5
BD4C23FB
3D22F8BE
3CD54DA5
3D10A45D
BDB5FDCE
3B0FEAC4
3C8D5C74
3D0C4370
BCCB4AED
3E087B9A
BD834B94
BD267B5F
3D8F0953
3D8BB01D
3D16DA01
3BDDF86E
BCDFEB8E
BCD2D235
BD085F4A
BD19C5A4
3ECCC78F
BC9A2E7F
BE28C9B8
BE4EA20A
3E9C0768
3E6A4D2B
BE898762
BCFC6DA4
BE0644D8
BE360E95
3EAD27A2
3E6A6E76
BE96008F
3CE03D57
3BDC3BD6
BC8C1DB0
3E378961
3E534A88
BE1E1DEB
BC9F0C35
3D73DD12
BE1B5287
3E01EC92
3E8591AC
BE0BACB4
3D64FFC9
3E8A54C5
BC083FD5
3DF7A3DB
3DA5AAB4
3CC68017
3E0C92DE
3C846845
3D783383
3E675148
3EB8A97A
BE5C53F4
3C8CED4E
3D90C77E
BC97CA21
3E167EC8
3EC9B457
BE1C47E5
3D8CF95D
3E25D5B2
3DB5464E
BD5D0529
3E8D41D9
BD94B407
3C1841AB
3D79FFD6
3C8C9321
BE1F2303
3E1DD69D
3DF62C77
3D15182B
3DFC219F
3DCA4F44
BD3D31BA
3E0183F9
3DFB0814
3D8FAC60
3CCEB357
3D3F52FC
3DA22574
3E872E6A
BCB58AFC
3D5FEFBF
3C0DDA49
BD1B9F99
BD6177EA
3E1A0169
3E0465A5
BC622E5E
3D7B05FB
3CF20429
BD80420F
3DE3EFAE
3E70C38F
BAE34763
BD8B1EE2
BD5BD72C
BD427A63
3CA8D866
3ED14EE4
3D8E05CD
3DF2DC2B
3D987725
BDC47DC3
3CB87DF6
3EAFA637
3DAF1455
BE3BC558
3CA467BE
BE0CBEE8
3E77503C
BC5987C6
BC83CD14
BD7D9BA2
3CE37586
BE05B5FA
BCAD42C4
3DFD2B6F
3DBF47FA
BD3AA583
3C3E2718
BC63150E
BE095EE1
3E0AB9F5
3D70A1BE
BD60B4E1
BD2B7BAF
3C9700CE
BE88281C
3E885AF7
3DC85F4A
3E052E30
3DF6D762
BDF994E2
BE0AD3A6
3E1DBA91
BC4AD9AE
BDF81E04
3C80A17B
3CC0F239
3E233EFF
3D2DBE7F
BDAAC3A8
BE2A9329
3DE90EED
3C826AA9
BDC8FDA0
BBF3D3A2
BCED84D3
3D41D4B7
3E262BF1
3D8FBB95
BE2C5005
3D9CA18C
BC63193F
BBE34FC6
3AF605AB
3E1A32B1
BE3C7043
3E32C7FC
BD5E8D54
3DAB4A66
3DF87A4A
3D827B70
BD3AF859
3D586DB5
3C9F5169
BB8F5C29
BCE3326A
3CB9B23E
BBE7DDCA
BF03C2DB
3D7BDDFD
BD8E11DC
BE41116B
3D8F8F04
BCADF0D4
3C4A57A8
BD0AB713
3CC8C500
BE9087EC
3D3C8D19
3B6C636B
3C63F35A
3AD4562E
3DFB5BF7
BE881A9C
BDDEAD4F
3E0EC99F
3E0E75FF
BCE27BF6
3C6AC42F
BDEA4F44
BE619EB6
3E320D56
3DD39325
3D68EE6C
BCF08AAD
3E2C4439
BD5E16D7
3D00A5AD
3DB5F783
BCDEEFE5
BCC3BF72
BDCCDA6E
BACD20B0
3DEC0054
3D81D6D0
BD336588
3DD52E30
BE87A1C2
BCB6EF80
3CE46F15
3D8DA33C
BDB06706
3D91C53F
BEB65908
BDFF1737
3DFF20A7
3D6D5172
BC8FCF81
3D576790
BE6A2489
BE9A2B7C
3E6580C3
3E42E0E3
BD8AB9B2
3DA7064F
3D45A922
BDCE4B88
3DDFFC54
3DDCCC8A
BC619B91
BE19C800
BDA47A18
BD18DEF4
3D66C5D2
3D185597
3DD15832
BC52AA5C
BE323077
3E1F9980
BDB4384C
BDC66BA5
3D00E5A3
BD2394FB
BE01AFC0
3D51D042
BDAFDC16
BDEAC5C1
3DA0D6F5
BE2A8156
BD63EF28
BDDE07A3
3DBF8445
BDCFBA02
3D823D92
3D93C57A
3DA94B38
BD37531E
BD6E2110
BDA33CE6
3D3D4AE4
BD525892
3D4D77B8
3D82491B
3D330A4E
BDA752DB
3D15B899
3C684AD8
3D239820
3D533C1D
3DD7507F
3D20FC2F
BD38EE28
3DBCC858
3E12DCB1
BE1D3522
3E433F42
3E01F213
BC70C77E
3CF9DD3C
3DA14941
BE40489D
3D9B54A0
BCF405F7
3CB0EA18
3DCDD8B6
3E451EFB
BCAD538B
BE0617C2
3CF8CA82
BD3A0E84
3D9AF102
3E84636B
3DB69446
3E2487FD
BE319653
BDBB8BAC
3E01F96A
3E56C58F
3D2DFF82
3E0F5B1D
BE3EC1C2
BD92AB69
3E0E84F1
3DB83276
3E396180
3D4E4218
BE0F049B
BD8BE511
BCBBF2F5
BD082492
3E8ABE6A
BD1F8D2E
BDA5CEE1
3B5099E1
BC86A6E3
3CD92D99
3E56A726
BD635936
3DA997C4
3D276641
BB168944
BD2E5365
3CB1183B
3D3E8FF3
BDA4095F
BCFF8445
BDEE807C
BE42934B
3DF872F3
3AD92FB2
BD42C0A5
3A102DE0
3CCD37C1
BCFBF402
3DB2007E
BC1420B4
BCEE9BBF
3D6CA149
3D25F84D
3D83BF72
3B5306A3
3B99E94B
3D8CF180
3D5289DB
3D1652BD
BDDA9974
BD382907
BD64FEBD
3E1BD274
BC4A361A
3E525BFB
3D540BBB
3DE8D6D4
BDD93BC1
3E01EAFF
BD06E2A8
BD4D5D81
BDE958DA
3E81528F
3E0045BB
BE38A3F9
3CD753A4
BD257C91
BB9D8C6D
3E4C82E0
3E4DBB5A
BE803298
BD6D2568
BD0D60A6
BCBC9258
BD4C1440
3DF231C6
BE870E91
BDD55E6C
BC9FE64F
BD372A39
BD847885
3DAA087D
BE0EEAEA
3C99D239
3D956D1A
3CB9D1B3
3D462E4D
BD9BD945
BA694EE4
3D127914
BD82C5E3
BE03DA73
BD0446B7
3D8E7579
BC9BE2B5
3D0AF70A
BBFCB4F2
3CE0114D
BD3B6673
3D0B48D4
BCB4F3FE
3BD63CB8
BD0BBC2C
3D243138
3C034D27
3E005F6C
BD942D49
BD4CA2DB
BD03AEAB
3D510A13
BDBA5FC8
3C96659D
3D52A844
3AB6B6E1
3E27B7C8
3DA9613D
3DCDCD2D
BADC768E
3D586CA9
BD4BD662
BDB79182
3B54BAD8
BDEB1BBD
3C93B9F1
3D9B5F1C
3C99D66B
BCAB6F1A
3D6CA149
BDD4994A
3DEDC1A4
3DD357E6
BBB85A4F
BD532E7B
3D80DAA1
BD0079A3
BD96E0D2
3DB44806
BB574928
BD714CA9
3E165669
BCD3E708
BD0BCADA
3D285879
BD66106B
3DC1D29E
3D40EF13
3E04B1EE
BD66D8B2
BCB28955
BDD17F84
3D03382E
BD9A5333
3DB990B0
BD9442C8
3D51819D
BE0AD70E
BDD798D9
BC746AA1
BD44D877
BCE277C4
3E0915BE
BD82CC2D
BCA83904
BD0B48D4
3BB29E4D
BE298B2F
3D818DEF
BCCEC41E
BCDAD96A
3E696638
3CDDE376
BE368167
3A9D6ADF
3CD92104
3D4C2A45
3DAB2208
3C9F3C71
BDB2AA5C
3C7EBD0A
BD25A35D
3CC98A22
3C113A50
3CE4191A
BCC5C572
3D8D2FE4
3D218698
3CA0A73F
3DDD1B2E
BD914A90
BCCE0DAA
3CB4CE3E
3C30574B
3D612F90
BD9790FB
BE34E8FB
BDD8ADAC
3D935D25
3D5028A2
3DA7EE0B
BEB5A986
BDC8EC53
BDA19115
3DF5BCCB
BC196745
3BB02928
BED69596
BD11FD59
3E12702A
3E5B91F7
3D7E1DA8
BBCEF673
BE869FAE
3E338327
3DDCC964
3E053A82
3D5F127F
BDC2E558
3E02C6AC
BE1B3FEA
BE4E392E
3E042635
3CB15B57
BDB40358
BDC51655
BE9AB9B2
BE0FC697
3D85FE11
3CCFA69C
3DAABF77
BEB5D096
BE68CC14
BD96C2F0
3DE0DD40
3AE820E6
BD0BA733
BED94984
BDDDB339
3E110668
3E6CE9E6
3D6C6CDB
BD85EEDD
BEDEFB6E
3D5002E2
3E0DF8B1
3DEDB37D
BD6D03DA
BD9BF8BA
BDA11905
BE7708EE
BE1DBFCF
3D44BF4D
BCBA2596
BE057C91
BE49C23B
BEAA491B
BE1CDD51
BDB12DBA
3D9D45A6
3DC2C6EF
BE8FFE6D
BEB22E1B
BD230015
3CC1D085
BD56B873
BD799B2C
BE81856A
BE3CFAAD
3E2034F4
3D8B4AED
BE10F734
BE01C2E3
BE64DF05
3D5F3C71
3D64A490
BD9B224B
3D5B8887
BDB5E743
BE23419E
BE361ED6
BCFBC3C6
BDB9695E
3D5182AA
BC1D16FD
BE9B0681
BE9A70D2
BDEFA051
BD5FC3B5
BCDBAF53
3E19D990
BEA15FCC
BEB3419E
3DEF8A4C
3B957CD4
BE30C954
BC8B08DD
BEA9159C
BEC3007A
3C3AB218
BDA55FBB
BDAA8651
BBA6A876
BDF9EA57
3B9F83BE
3D9CB791
BE6018E7
BD0A0903
BDBE8C48
BD930BE1
BEA5816B
3E330271
BDA97B74
BCB88440
3DAE9E5E
BE91FF71
BED358B0
3DB4DDF8
BDDF505D
BDE5A9A8
3D80956C
BE83EEA2
BEA4D9C7
BC356324
BB30F27C
BE4BA27B
BDA6FBD2
BE31B3F2
BE7919AC
3CC8259E
BDE0DAA1
BDC5100A
3C1799E5
3D90B73D
3D80218E
3DC9B62C
BCDE95B8
3CEC1E36
BD31A5CA
3C76555C
3D19AF9F
BD2E85BA
3ED2B1B3
3E0CB817
3D235A42
BF1243AA
BD553693
BE8B7C35
3E4777D1
BC8283D3
BD4D50EC
BF0ABE7B
BE1AD57C
BE7D4AE4
3DA985F0
BDEC2BD8
3D8FB97C
BEBDDEDF
BE761416
BD709FA5
BD99439E
3C5B5526
BE05EB31
BE530596
BE7FFF37
BE0FB5D0
3CA6DEFC
3E05BCCB
BDDF25E5
BEBEBA49
BD99BFDF
BE0BC4D2
3E038D61
3DD389B5
BCE05AB4
BEFA0297
3CB8DA3C
3D3A4724
3EB5ECC4
BCFA80D0
BE667C6C
BEE2B9B2
BE0C0592
BE13AFFB
3CF9AD00
3C605037
BE83AABD
BE810ABB
BE07FA1A
BDE604E2
BE3DC6A0
BD93FEA0
BC252264
3CFA8501
BD9E14BE
3C431594
BE11EEAA
BE636545
3E0A45D4
3E7B10BA
BE2E1651
3BF251C2
3EAF136A
BDB27807
BB95E17E
3DEB4FA5
3E97FE2A
3EAC063A
BE967FB2
3CCDEA03
3E4684CF
3E717FC7
BCA47A9E
3EA67FB2
BEB6CB75
BCBF65DC
3E4816F0
3E8B7543
BE42EA10
3C406184
BEE3CAFB
BDAC09C4
3E62706D
3F33F844
BDC2AFDE
BC662132
BF23F39D
BE03AC0C
3ED2033E
3F169521
BC9F6EC6
BE5854CE
BEDB0A4E
BE117A46
3E2F0670
3ED2BD7F
BD936F7E
3E5632C2
BE95F19D
BE5D61F6
BCA1F6CB
3F3E1805
BE823748
3E8A2C88
BF0F1487
BE10FECE
BC8EBEE0
3F77F67F
BE00D7BF
3E699525
BED34A66
BD26E115
BCED45E9
3F3E9DB6
3DFFA54C
BE72F6A5
BEBBCC4B
3D46DA45
3DCE6080
3E71A198
3E869553
BEAE0243
BEFAB799
BBE02A78
3D9EB075
3EBECBDA
BE3CC6C5
3DA007DD
3CD07C85
BE098EDA
3E14F1A2
3F183C5C
3E16B8B7
3E37CF5F
BE872BCB
BCFC0097
BD67E308
3F4BF76A
3E514057
BDE5B0FF
BD1A6613
BD1C304D
3E205575
3EF1E322
3E57A919
BE94E52E
BD9E9963
3D432DB2
BCBA3012
BA1246BF
3E845B4B
BDC1626B
BD93471F
3D1858BC
BC79FCB1
BC88919F
3D1AF8DF
BD464CB6
BEE72CB6
3DDF36AC
BE0CC6C5
3E843FC4
3E661911
BDE3EB7D
3D76BA06
3E619F3C
BD4CCDD9
3D251D26
3DB9E94B
BE1650E7
3DF39C95
3E2AD9AE
BD4D6E48
BE2CC3A0
3CFE6927
BDE71DE7
BB9FE005
3DD3647C
3CEEC7C9
BE7ABF34
BCF65DC0
BE16C722
BDE08312
3D5BFF04
3DD60F1B
BE542EDC
BDB76D55
BDF020C5
BDBA2D73
3E07BFA5
BD3024F6
3E9BB59E
3DEACB86
BD921C47
3CC7863C
3E323E5C
3D2F1455
BD3352A8
BD1A5871
BDE23D92
3D8B6284
BACEF673
BD2C3B92
BD4E63A6
BE3AAFBC
BD40DA1B
BEB3AB65
BD8A7B4E
3BAEC8D6
BDD0BC7B
BE681B65
3DE87B14
BEE931A9
BDB3D189
BCA6EDAB
BE039D1B
BEAB582A
3D00F451
BE8B91D5
3CFAF20F
BC8DAC26
3DB2495E
3D2440F2
BD3F61AA
BC1FDBD3
3D139219
3D18F3ED
BE40AE53
BE13E2D6
3D87C4A0
BE388766
BD55043E
BDA84DFD
3CBD2956
BE9B31E4
3D0E3044
BE833A04
BD11A438
BD5306A3
3E437154
BEA3D124
BD38A7E7
BECC6E6E
BD7B0F6B
3BD57364
3DC7B353
BEE6A4EC
BD8D3177
BEA59C28
3DE122FB
BD45E2CE
BDDADAFD
BE05C5B5
3E2B76B4
3D865A57
3DA1C79B
3DC3CE21
3CE429E1
BEB1A5CA
3E01BE2B
BDC76F2A
3C252264
3DA25FA6
3DA07C42
BEAA0579
3D120D13
BDB3543B
BD56733F
3CFA9197
3E9A9C78
BEB2131B
BE06B8FA
BE107AF2
3CBA493D
3E026C3C
3E60E7FF
BEBD23B3
BE5AC797
BDBE2AC3
3D90A02C
BDC62995
3D89A4DF
BEBB32AD
3E80AB50
3CBCDDD7
3C998D04
3E095D92
BD5E0D67
BE8803EF
3D96744B
BE0390C9
BE34A1F1
3CD04E62
BD875361
BE211B61
BE375AB8
BE04C122
BD7BB1F2
BCAE429E
BE26C58F
BE538C11
BE9C2F1F
BDE30A0B
3D794424
BD8E88DF
3D3EAD4F
BE3C08B7
BE5A52F0
3DCD98BF
BC7BA01F
BCF991BC
39EBEDFA
3C57D391
3CB2EBE6
3F096E48
BB8C825A
3CF8D4FE
3E3F61ED
3C7A00E2
3D9522A7
BD8D78C4
BC2615A9
3DA471B4
3E63EC46
BE2B7D41
3E1AF07C
3CB033A4
BDC4A383
BD652BD4
3E151F3F
BE3F7BE1
3E290929
BD7D6C72
BDA7FAA0
3DB5FF61
3E514AD3
BE3EDCC2
3E18E68E
BE1282C7
BDEBF551
3D9B9F12
3E495853
BE2ACDE2
3E35A46A
3BA1B5C8
BD737EB3
3D88CDEA
BD09A77E
BE1F3776
3BD716D3
3D8583E8
BD829B6B
3E3E6BC6
BCC5A815
BE63CDDD
BCCC7086
3E63BFF9
BC1DECE5
BCCBF4CB
BE4C38B0
BE1B5287
BE2D2136
3E5A7653
3D446845
3C6DDCE8
BDBCC426
BDCDBF05
BD832CA5
3DA1309C
BCAC1D2A
3E1F57B4
3D4E8FB0
BD926528
3D2E642C
3DAD2780
BD4E789E
BD824A27
3DE9795B
BDCBA27B
BD9BE6E6
3CA9D40F
3CB358F3
BE0055B9
3C751698
BC37C782
BE4250F8
3DA221C9
BCDB9A5B
BDF93144
BE288B54
3C9C0EBF
BE64C9C9
3E715DF6
3E236695
BE19EADD
BE746E09
3DC3A216
BE2EAE9F
3E2AA1D7
3C248302
3C9E4B45
3DD2D0A2
3C28F7DB
BDE234A8
3D96E58A
BC405D53
BE651330
3E0DBA91
3D30CCBC
BDD1C194
3DE86488
3D516B98
BD07C0F4
3D7DC487
3E1F88FD
BD9BE660
BE48EC10
3CC22EE4
3D950A03
BE27A744
3E3B5ED9
BD8D5843
3D0CA81A
3C2EAFAB
BD751373
BDDAA609
3E871C54
BD99ED7C
BB829CFE
BD0BA626
3C4B74DE
3D957796
BCC0D0AB
BE1C60CC
BE09D1B3
3D49FB61
BDF26F1E
3EAABDA1
BD5492FF
3CFF1306
3C91B824
3DFE0935
3CE13F4B
3E86FD44
3E24577E
BCDFE75C
BDEF8C65
3C5CB146
BC4C857F
3CC3675E
3E18B589
3D7A3337
BE164ECF
BC071609
BDEB66B6
3B9EFD87
3E0DFA01
3DDE4A38
BE2AD7D8
BD76837F
3CEA3DF7
3E11BA3D
3D965343
BD6AB25B
BE5D9CF1
BC6147AE
3C90CB29
3D26B93D
3BFE0CE1
BC82773E
BE6C00DA
BB701FB8
3DC8E608
3E039607
BCDCF030
3CD7C6FC
3DFE1544
BD0A3A4B
3DA5B856
3E52E8C0
BDEABFFD
3D2109D0
3DEF46AA
3D39EF0F
3CBBDBE4
3E4FC009
BDFD523B
BD3A6CE3
3E3756C9
3DC7136A
BDB4A3C6
3E106317
3D8110A1
BDD37111
3E7DD93C
3E077F6B
BDA50A46
3B5FACA3
3B70520D
BDA32A06
3E8DD5D4
BC7950B9
3B0216C6
3CDA469D
3DFF00AC
BC2EC8D6
BD84B4D0
BD9E2DE8
BD3F0026
3D343201
3E126D8B
3DDA8049
BC5D26B7
BDBFB939
BD96E829
3D6BEF07
3E63226C
BCD7CF5F
3D7CCD10
3D1C0443
3BAE2974
3E0D7B20
3ECCE209
BDCC111B
3E412770
3DA88F86
BD36D549
3D4F3FD9
3E71715C
BA77B9E0
3E91A3B1
3D06BDF5
3D662457
BED280AE
3DF7FA5D
3D31C53F
BE81769B
3CFAC81D
BE0E34FC
BEA5119D
3EA1D55E
3DA6559F
BE080D3D
3D05A815
BD1A20DE
BEB0722A
3EA02CB2
3DAAEB81
BE44F6E0
BD8D6239
3E30AF1D
BE64AA11
3EA8348F
3E1D59D5
3C2BDA0E
BD60C8CD
3DC6DC5D
3D1FCF3E
3DE670E3
3DF380CB
3DDF1E8E
3E35D851
BB7CB4F2
BEF5DEDF
3D86C1A0
3DA2E771
3D7B890D
3E447F56
3CDF8099
BF031C65
BD322AF5
3E31098D
BD9FE197
3E06C69B
3D94B7B3
BF163C10
BD2619DB
3E882257
BE07635E
BCFDA837
3E476F6D
BEC4F616
BE133440
3E16ED24
BE0898F6
BDC8EBCC
3DD335D2
BE30CCFF
BE870564
3DA7485E
3D0AC8E7
3E455B03
3D8617C2
BE78F8E8
BE9F7E1C
3E44FC61
3E0121EE
3C8FE261
3DC92DDC
BE522D0E
BEA37C35
3E48DD61
BD619546
BC82D59D
BD3689CA
BE47A2CF
BECE4778
3E4682F9
3C5DCA4B
3C43E74B
BCF2E276
BE847A18
BEEF65DC
3E742BB6
BC8AD03E
BD01CB47
3D91CFBC
BE908894
BEAB8D61
3D217A03
3DA28566
BCCA1F08
BD23B689
BCFDD228
3B85C24C
3C1185CF
BF9B9C8D
BE0E49F5
3E078184
BDBC8FB8
3D239A39
BE0348F5
BE65A5FC
BE2F47FA
3E130942
BE4DEA46
3DDA6DF0
BD84399B
3E05F8D3
BC9DE69B
3DEADCD3
BDE72C0E
3DF3C148
BD49E668
3D291538
3C227286
3E26F976
BE5C66D3
3E3C88E8
3E1A33BE
BE39DF98
BDC4D8FD
3D9C8C0D
3D031F04
BCAC98E5
3E877597
BE0FF0CC
BCA10BE9
BD69E0A4
BE37AE9B
3DDD3459
BE9E9F6B
3E03E78E
BDD0FB65
BD3C45CC
BEF4A9AC
BE564B66
BE63EC46
3E11B824
BD1E529C
BD0B9ECF
BF1CCC8A
BE2C432D
3DB45B6C
3E45A1CB
BD42E771
3DED98BF
BF35E0B5
3DBB1B7A
3EB86035
3E8DAD10
BB5FCE31
BDFFBEFD
BDC2B735
3CCC1659
3EE49F51
3E02ED35
3E04228A
BDC466B2
BE2CC6C5
3D37329C
BE19DDC2
3E4621FB
3D269BE1
3D25A78F
BF0BEC57
BE2AC57E
BD92189C
3E34FF43
3DE6C43F
3E0632C2
BF3A71BD
BE1D86A9
B96496EE
3CCCF8D7
3CB239A4
3CDEA034
BF1CF7DB
BE4D701E
3E98811B
3EA62E0A
3C29EF52
BD846499
BE7A48B6
BE6B8A5D
3EE4A559
3EA9B691
3E1BC383
BE77763E
BE32684D
3D13D20F
3BFAD6CB
3D5E6ABA
3DB9D1B3
3D30E2C1
BF0EC5C1
BE702470
BCE85DB7
3D86412D
BD5DCC64
3DBF9E7C
BF5C3255
BE0E4DE4
BD92B90A
BC36ED67
BDE5F7C6
BE8D8B3F
BF4AF70A
BE9BE4AC
3E81C4DB
3E82B218
BDEC3B92
BD332379
BEF38477
BF0D46A2
3E3E27E1
3E9D32E8
3E32131B
BE5E8F2A
3E009310
BC26C5D2
3DF4B381
BD86E19C
3E64E768
BE33A81E
BE01A7A0
3E72DDBE
BD417657
B98E1501
3DF79421
3DF483CB
BE6A4591
3E07EE0B
BE1290EF
3D4DD50B
BD41376D
BE1C6195
BEEBEB3A
BC274C0A
BD9AF3A1
3E1FFDA4
3C004966
BEB7824D
BE553869
BE7852B5
BD993B3A
3E50DC77
3CE3E4AC
BD0B3919
3D11A976
3CD9F905
3D44EC63
BF04ADBC
BD0112BA
3CE1437C
BDF68273
BDAFB4C4
BD5B5526
3DA6948A
3D898C3B
BD0810A5
BE3931CA
BDC15D2D
BE092685
3DF11516
3DFDA05A
BDC5F17C
BDF9FC2B
BE81949F
BD2806AF
3E73E9A7
3CC2F406
BC9107FB
BE3CF3DC
BE6208E1
BD90795F
BD381840
BC3530CF
3D4B1141
BDD94185
BE7E596D
BC9DE050
BD1C8861
BE1D14E4
3E1A5C1C
3E2039EF
3D3BF1E9
3DA16B55
BE6EDAEC
BE11D0C8
3DC8294A
3E0D156A
3C3CD35B
3D93FF26
BCB7A3DB
BDD466F5
3D8C01E7
3E2C6C55
BCE51090
3DF95571
3DE71477
BD4255B0
BD96FFC1
3E335116
3DA6687F
3DC41F64
3D4E9920
3D9AE600
3D8A1273
3DB94424
3D31C326
3D500714
3DC08BFC
BD40FA9C
3D6F954F
3DA1DDA0
3DBA8A40
BCAC83ED
BDB65343
BDBBE660
3A97A67A
3DE660A2
3CEC69B6
3C760179
3C49AFE2
BDB697F2
3DA58E65
3E9EEC18
3D4C7B03
3DAC4B4D
BB08A47F
BBE820E6
3D03E532
3EA0BDCB
3E867A31
3DD77AF6
BDDE774F
3D7A7009
BCF995EE
3E4FACA3
3E6681ED
3D5B4784
3D1BF163
BD0BF7F0
BCDE785B
BD5DC1E8
3E13FB37
BD653FC0
3DD4506A
BDAA91DA
BC5B1A6D
BE3485A1
3DB9B563
3DEC2720
3DE9C886
BD3FBDF1
3CC6088D
3BF23034
3E0ED95A
3DCDFEFC
3DACD0FF
3A373D19
3DD9A49C
3D330835
3E9171C1
3E228134
3CFAD6CB
BCC2480F
3E1159C5
3D6C4934
3DFC74FB
3DE80304
3E2A4335
3D903105
3DA304CD
3BEE17A0
BCFB2895
3DA163FE
BD052B4E
BD07021D
3C35A20E
BE31461B
3D761ED6
3D3CC294
3DCF35E3
3CA2F6A5
BD9423D9
BE2121EE
3D5F6DB9
3D75B2D5
3D805DD9
3D8D15AD
BD121FF3
BD271CDA
3DEFF328
3CAF7F4A
3DFAC604
3DBC9F73
BC8DC550
BD8FBF40
3E24BCF1
3D3586CB
3E278078
BCA50B52
BCB1A4BE
3C10C910
3CF53826
3BF672B9
BE660E0F
3C60EF9A
3D333333
BD597A25
BD7968D7
BC9A2C67
BD8BFB16
BC6D9DFE
BE0A54C5
BDB0520D
BDF44806
BE2EBE59
BD593815
3D3B59DE
3CBF9E7C
BE112770
BE27589F
BDE2845A
3CA76534
3D94E875
BB817FC7
BE84A234
BE4806AF
BDFB9E06
BD499BF6
3D2237CE
BC10E66D
BE2C68EC
BD0B19A4
BDA2B628
3DEE03B4
BD73354C
3D8E67D7
3D90AEDA
3B1B8455
BBB5AA71
BE21F299
BC15896A
3DEAE968
3B24D2B3
3CBB8A1A
3CA10386
BE429457
BB03FD50
BC7CFC40
BCCAB3EE
BD80AF1D
BD844F1A
BD6E0C17
3CAF2303
388E9B39
BD8A31E8
BD522C88
3D0067CF
BD46E2A8
BB04E832
BD74DF05
BD4CC682
BBB40F67
BD1D0B74
3E0FBBD8
BDD4FACE
3DCCBA73
BC497529
BD730D74
3DABCADA
BDB68F08
BDE6223E
3CF8A4C2
3D5016CE
3D384FD3
3D7FE8EE
BDBF4DBE
BD897529
3DC9374C
3B434C1B
3D9BC665
3DAB0FAE
3CDE785B
BDE70C13
3D36B1A3
3D416590
3E81C7DE
3DD1B9B6
3B6BAADE
BDADCB14
3C8FABDA
3BB777D1
3E07835A
3DE7FD3F
BCB7457C
3C5627BF
3D60AD8A
BE45A533
BC7D2A63
3CE1B2A2
3DD1E860
BE04F7A9
3E0B5E0F
BDEFBA88
3D452503
3E291C4C
3C34F616
BD69E2BD
3E0688BE
BB0CB4AF
3DAD2242
3E426890
3E2BF488
BD8BC16A
3D0DC982
3DD4F616
3E1EEB2D
3E1EE393
3DEA2A91
BA9C3CE2
3BF2D7F9
3DC93B7E
3E2ED7C7
3D4E5D5B
B9D1B717
BCC1AEF7
BBB8F9B1
3B33A259
BE0575C0
3D6683C3
3DA5FD05
BDA601BD
3C9DBA91
BDB68598
BE0AE254
3C962281
3D0E4C94
BDC1040C
BCC0DD40
3DD594F2
BD0549B6
3D04B1AB
3DFBAA15
BDD872F3
BD25CB36
3E17689D
3CFC99AF
3D2A26E5
3CD5ED07
BD588A05
3D0A8D22
3DA53869
3E4123C4
BCDD67BA
3C8FF10F
BD224CC7
3B2E2110
3D34B945
BC9BC558
3D1C3CE2
3CB8E087
3BACA793
BC62046C
3DA53544
3E9991DE
BE7027D9
BCF69A91
BDAB020C
3E5032DB
3E6CD573
3E8A2C02
BE825E35
BEBF2581
BE530A91
3DEFA2F0
3C8E7792
3E72990F
BDC5A1CB
3DF0B8D0
BDD55D5F
BD4DD1E5
BD406078
3E4F6F4C
3C1A1FD1
3DD66A55
BCD54DA5
BC58622C
BE531CEB
3EAF52DB
3DADE6DE
3D8A19CA
BB42C5E3
3DEF4385
3E895DD5
3EE5E4A4
BE1DE82D
BF13835A
3C365A9B
BC42C5E3
3E521D97
3F0AAAE3
BD6C8C50
BEEC90E6
BEA80FFE
BCDE0B4E
3DEE2542
3E87381D
3E7E2E2C
BD9AC259
BE4302F7
3C1FC6DA
BDC9CC32
3EAFFC11
3E9F52DB
BDA225FA
BDC5FC7E
BE27CFE6
BEA61566
3EB7544C
3E0F7C24
3E1266BA
BE0FCE74
3E3037D6
3E94317B
3F1C300A
BDB526D9
BF07B7A6
3C5349BF
BC3FE7E2
3E31DCD7
3E8607E6
3E1259E2
BCE8576D
BE1FDC9C
3CFB82C3
3E105C03
3C94141F
3E5187A5
3E312275
BD8CCEE6
BD389E77
BE4B8FDE
BE8C8F75
3EC4C6E7
BDB7E3D2
BE1CC9EB
BE003A75
BECEBACF
BD7AF74D
3D5B6E50
3E31ECD5
BD830CAA
3E77B5F2
3E4E5A36
3F03A030
3E377DD8
BE712F0A
BBCA0C28
BD9CB924
3EC2E903
3D06AD2E
BDD2A066
3E449A13
BDBA133C
BE34573A
BE5A9692
BEB3F61B
3E903AFB
3EAB0A70
BDC78F26
BC9BC127
BE9C382A
BF3578E6
3CDFD47C
3E4E0935
3E10E347
BEB9E0A4
BECAEBC4
BEE47560
BE3769A9
3E47EAE6
3E3EA0FD
3E62F987
3DEC9FB6
BCDB24EA
3E37DD87
3D3E2B49
3E030E3D
BE261A1E
3DDFF690
BE83630B
BDC323BC
3EC43266
3E3A4229
BE86BA6B
3DC0B88D
BEECAE00
3E299FA1
3E5863BF
3BCB31C2
3DD7DD01
BC79E386
BED3E2B5
BE65DFEC
3E8C9928
3E8D6627
BE537825
BE1B6FE3
BF22C109
BE33ADE2
3F000043
3C2E7925
3D164C73
3D0BD988
BBB42891
BD07496B
3ED63A19
3C46A7F0
BDBCE39B
BD9DF3B6
3CB07F24
3DD85CEE
BE6FC9BC
3C4CC89B
BD0A57A8
BD9486F0
3C293AF7
3E1C0725
BE443CC0
BD3FE197
3D96030C
BD7E8039
3DE99392
3DD92D13
BE16034F
BD3136A4
3D3F20A7
BD7D017E
3E055582
3E2A6F3F
BE65AAB4
BCB5D24A
3DE3EAF7
3D090D5A
B9ABF76A
3E22ADC5
BE95D7ED
BB2EFB2B
3E33F812
3E4E236C
3D6E9574
3E0CED91
BC997C3D
BD9C2E34
3D893A71
3E3D0BFA
3D95D0B7
3E688334
BB45FBF8
BD6A8A83
3D3662FE
3DA9FC6E
3DCFBA88
3E765BEA
3D3B6567
BCFEF7C2
3D76B7ED
3D837A3E
3DF0EDC4
3E86D2ED
3E2773E2
3D51F601
3DC0DED3
BCEED677
3D5CB89D
3E0A12B6
3D32A498
3CF1800A
3C4FFEB0
3E0E8E1D
BE4187A5
3A7ECDD1
3D709D8C
3B894C44
3D933227
3E658362
BDCBFD2F
3C27EF9E
3E0EC248
3D71183B
BD8AAD1D
3E3358B0
BBA5B531
3B9CC31A
3E13A0C7
3C6AF252
3D767B1C
3E2FB7A6
3D3A4F87
3D14A4D3
3DA32FCB
3D50EA9E
3E0BD018
3DEBDA0E
3E284FD3
3E05EEDD
BD4842FA
3C2E8188
BE2ED289
3D9588E3
BE39BED3
BE1D377E
3DA57321
BD25DE16
BD997EDC
3CBFFAC2
BE425B75
BE8BC340
3E70DB6A
3D839714
BD25D074
3DD3A57F
BDEC3DAB
BE925F85
3E908ACE
BC880735
BD042A67
3E4E7AFA
BDADEFC8
BE2E9A70
3E84F50A
3A3178B3
3D97BE12
3E1C254A
BD3CCD10
3CAC2374
3CF44913
BCC98C3B
BE51C8EB
BE1D05AF
BD2D245B
BDD583A5
3D7E468D
BC76A0DC
BD8DF58C
BE3B3461
3BD9BE4D
BE778FAC
3DEC97D9
BDCBE8BC
BAF75537
BE6BEA92
BCFDDEBE
BE77BEDB
3DA569B1
3D1BCCAF
BD43F91E
BE44EF03
BC8C5650
BE7D0397
3D88FD1A
BCD019F4
3D5C0011
3C89CC32
BD8E68E4
BE0761CC
3D94AA97
3C4DC875
BCE07E5A
3D1F2346
3CFFAC1D
3D243CC0
3F0B8748
BD153CDE
BD29D1F6
BD86BE7B
BE230F8C
3D44E93E
3E168BE3
BD7823C8
BD25D5B2
BD24CA4F
BD5EBFA9
3D4203E6
3E4F8FCD
BB8461FA
3E103E64
B8EAE18B
3CAB430F
BD7F0564
3E170542
3DC342AB
BD81E8A3
BC184A0E
BAAD8A11
3C7F25E5
3E0B8280
3DFA0F0A
3B9552E3
3D89D94D
3D09CE4A
3C9E1F3A
3CF1E29B
BD833E79
BE150225
BD1054AC
BD006291
BD2C4502
3E9D3FC0
3CD3B8E5
BD05197A
BDEE368F
3D6F74CD
BD012F0A
3E971737
3D88472C
BDA99BF6
BD5E9C02
3D87F90E
BD34B620
3E57D06C
3D1E41D5
BD872FBA
3C8DA7F4
BB967019
3DDEDE98
3E5ECF20
BC8B45AE
3E0B5D89
3DFFEF39
3C9003EF
3D67A41E
BCE872B0
BD95115A
BDD10668
BD810731
3D41094A
3D63F24E
3E4EA67F
BCD16335
3D8B7D41
BC9FFF7A
3DD59792
3DEB95E6
3DEC814D
BDC75D57
3E1D872F
BC838E2A
3D1A3B15
3E0D4563
BE166F50
BDF0E0A8
3E0AF9EC
3D52D773
3DA9DE8B
3D31E8E6
BE7E2196
BDDF5621
3DB6848C
3D20157F
3E2C679D
BA5173FB
BDECD8DC
3D68F4B6
BD807703
BDF612C7
3B6874C9
BD0A979E
3AA0F4D8
3E1C300A
BD671583
BC8A6330
BBB1465F
BB79F44D
3E1FD8AE
3DB74928
BDDB15B5
BD7AA9B5
3DAD8BA4
BD572EF1
3DD83F92
3DF4141F
BE708312
BD13AB43
3E48387E
BCDEEBB3
3DC1BF38
3DF82F51
BC8869C6
3D867B5F
3E9B1AD2
3DF3604A
3DAD7ADD
3E183DFF
BDA013EC
BEAA8C7A
3E810F0F
3E16CF42
3DE13986
3E013D32
BD3C9364
BEB2CB43
3E2A2F06
3E1263D8
3E44F7A9
3D32DA12
3DC74D16
BDA41355
BBA52EF9
3DECB103
3E628848
BCB19A41
3E7373F3
3E37F3CF
BDA3CD9A
3E86DBF9
3D106BBE
BCEA2B17
3E775B3E
3E5B380D
BBAA2A0B
3D5323FF
3D1E17E3
BB1DADFB
BD2D7C70
3D289CA2
3C941E9B
BA1BB6AA
3E17C4E3
BDCDC875
3D1C1F86
3E559FF5
BE9038A0
3CE09DD0
BE2EAA2A
BD91FB40
3CE0029F
3E46F545
BE408030
3D29AD43
BDD539B9
BDA62670
BE443F60
BE01ECD5
BE11ACDE
3E425FE9
3D2239E7
BDE01D5C
BB8AE74F
BEF836A8
BE6A79FF
3E2D4995
3DF72B45
3CD8D36B
BDA9BF9C
BF04C1DB
BD92B66B
3C727FE5
3E5DEEFE
3CBDEA46
BDF803CD
3E25F7C6
3DA373F3
BC4EAF25
BD8DCA8E
3E0C6541
3CC16BDB
BC88E150
3D53BAFE
3AE29F9D
3D8CB6C8
3DA051CA
BDAB0293
BE7ADB40
BCACD7CF
BC00A5AD
3E5893B8
3E02A412
3DA45BAF
BEC96180
BEA1C25D
3C4C6C55
3DF71088
3CA2F05A
BDBB0468
BE4549F9
BE8EEFC3
3D295D92
3DCDF9BE
BE1EC9E2
3E881DC1
BDD645A2
3E0828C3
3DDE15CA
BE62ACB8
BE374C0A
3E5E1933
BE7D5AE2
BC5373B0
3EA012E0
3D5DA273
BE46ADB4
3E25B0BC
BEA71A1A
BEB9539C
3E81C5A4
3EBCEDD5
BE4B35B1
3E89D495
BECF74CD
BF245858
3E84432D
3E4B6849
BE85058E
3E2FC8B0
BE8FF8A9
BF22C96D
3DDF6DB9
3C93404F
3D58127B
BDC7BC3C
3D0C33B5
3F214AF5
BE09B0AB
BEDB2703
3E56C7A8
BE97FAA0
BD3A92A3
3F209093
3D575E20
BF1F76A3
3E718937
BE93A55D
BD9CD24E
3F1E2414
BD7AFA72
BF1E567A
3E51F3E9
BE757604
BEBFCF1C
3EE0ADAC
BE1E004B
BEBC5AC4
3D07A28C
BEFF20C9
BF0C9A35
3EC50E99
BD39AE0C
BE04EB14
3E159AFA
3E080022
BD8896DD
3E7FB2AB
3E410731
3ECDBF27
3E66C26A
3D02C908
BE196E59
3E96149C
3E78826B
3EAA4DB1
3DE0AAEB
BD6C9082
BE22D40B
3E56FBD2
3E81EB20
3ECCC4CE
3E344285
3E563A19
BE111CF3
3DE2F380
3E990774
3EB7AE9B
3D876FB1
3D2D3416
BD08C719
3E03D923
3E7B24EA
3E3146A2
BD2A92E6
3D414C66
3CD19158
37A7C5AC
BD0F4F94
BF992629
3DE8ECD9
BCDAE3E7
BDA43809
BE8C8733
3D662ED3
3E26B980
BCBEAB36
BD88CB4B
BD0ED5F1
BE1DF1E1
BE08B4C0
3C11D9B2
BD761459
BD38FFFC
3D728F9F
BD771FBC
BE414FCE
3EB2F09E
3DB6B65B
BB87E38F
3E1A5D29
BD08F755
BE1FC82A
3ED53522
3E2DE58E
3D9158B8
3DCCBFB1
BD22F167
BD8DE093
3EC5510D
BCA0BE51
BC83A96D
BDEBF338
BE329025
BCB35B0C
3DA3443D
BD04A72F
BC28869C
3E8D18D2
3E57A850
BE5C4C16
3D3547E0
BC132D6F
BD276534
3E4C7B03
3EB842D9
BE1600B0
3E29C90C
3D279BBB
BDD3660E
3D2960B7
3EBF0AE5
3CB52008
3DF39B02
BD28027E
3DE93B7E
3E48B370
3E4F3C2E
BC048BEB
3E6DAAD6
3CD3DA73
3CFC0B13
3E695853
3E9CC6C5
BCAA8A83
BE985250
3CAAF790
BD15E072
3E7E0547
3F0DEF52
BDE84381
BDF97354
3CBE24FF
BD81F213
3D868DB9
3EAC6C98
BD9311A5
BC59018E
BD57E77D
BD155608
BEDE8DFC
3F24AE00
BDC5BAF5
BEA0C36E
3D57B635
3E5FB9BF
3E057604
3E92EB81
BE3A1A93
3DD2A0EC
BCDDE376
BB96CC60
BCE5D7CB
3F03D5CB
BE9A6CC2
BEBBFBDF
BD574F72
3D024F66
BD8F7FD0
3D9D32C6
BD7558A7
BEAA17D3
BD6F0E0B
BD5FAEBC
BDE366D8
BD529564
3D7D9125
BEACB685
BDF4C09C
BE83C340
BEA10C2C
3EE5F30E
BE54A6EC
BEFACA15
3D82F273
BC0A6DAD
BB4A8199
3D8236C1
3DD8BE73
3D230FD0
3D62120E
3E56D2ED
BE527C39
3EA2E9EE
BE41CE6C
BE828E0D
BE5CBFB1
3D4EE5AC
BE27BDCF
BC99E732
BDD77293
BE8DEC5F
BE9F4257
BE78255B
BE2737DA
BC3F11F9
3D2CFFA8
BF093E60
BE3337EB
BDF7867F
BE7E379B
3E7B1034
3E2CE13F
BEAE327F
3E83A040
3DD0D0EE
3C541B76
BE2FCB0C
3DDC9FF9
3EE335B1
3D0D4563
3D0CC89B
3CD905C0
BC90385C
3D3912DC
BC022BBF
BD90203E
3AFA3769
BDB83A54
BE206141
BD2E6213
3CD2BB23
BD64FEBD
BE0C154D
BDE4217D
3CEE2EB2
BD5220FF
3DB5C7CE
BD425E14
3D1DBA91
3D96640A
3DF13837
3C4B039F
BDC5E679
BDDF8D2E
3DD7F067
3DA23077
3D48B75F
3DF797CC
BDDEA1C7
BDFBDD76
3C329E4D
3E55A9EB
BD3E7297
3E7F340D
BD4F3ECD
BCE9057D
3D53C686
BE63E575
BE968683
BE8AF9EC
3BBC2763
BCC2E558
BDA61D86
BE87BC5E
BDD7F8CB
BE328B6E
3E2C5005
3CC1A47B
3D3D9FD3
BE58A223
3D1C5B4B
BA99BF59
BE099E0E
BDE35E74
3E09F83C
BE79AD86
3D8C5E2D
3E091A33
BE47A3DB
BDCA48F9
3E59A7C1
BDC070B9
BD3C7A3A
3E7F5DFF
BDF715C6
3C39A177
3DE436FC
BE8FB41C
BDA7296F
BE5A2984
3D845996
BC8522EA
BDC4C7B0
BD7F5E85
BE93BF0E
BE4CC07B
3E123572
3D1C5E70
3BE5B424
BE5CEBBC
BE5F5D35
BB86BDF5
BD062F5A
BD699A63
3DED2780
BEA06AF4
BE09E493
BBA8C9B8
BE9112DC
BDED6F54
3E4E831B
BE3EF135
BD8A4980
3E2A7AC8
BEAA7FA2
3D1B4DCF
3E966F0D
BE1DEC5F
3B520AFA
BE0DF330
BD9009B3
3D9816AD
BD21D430
BDE9667B
BE8562BF
BE49E7B8
3E105D53
3DAD477C
BD3A0F91
BD439CD8
BEAE5797
BB4DB7AE
3E0547E0
3DBC8B00
BC0BC16A
3DFB9D80
BE88FB44
BE15C7CE
BD8D9D77
BB7CF80E
3C935B92
BA95D0B7
BE4F0E4E
BD4FC82A
BE915A29
BBBC48F1
3E88D1B7
BE5FC760
3D424A27
BD364E05
3D77AE58
BDBD7E46
3B3DBA0A
BDA277C4
BE4C84B6
BCF166E0
3D8FE3F3
BD51904B
BDA60CBF
BBA52696
BDE1272D
3D9014B6
3E0C269A
BB13FAF4
BC1934F0
3DEA1F8E
BCC430B1
BD0C33B5
BC466905
3C84DB9C
3D900C52
3DA79570
3BDF47FA
3B4FBFC6
BE2B6284
BBA7BD49
BC13C89F
3D309C80
BCD718EC
3D3B3FA7
BEE383CF
3E21D10B
BE34B48D
BDBFAE36
BC37CFE6
BE4A61E1
3E1598E1
3DB1044F
BDFE39F7
BE05FE11
BC989BD8
BE40C4DF
BE09899C
3D3F51F0
BD1F6988
BE0A237D
BC34CC25
BD4ED0B3
BDEF8B59
3C960B70
BC5701DA
BE2290EF
BD56BCA5
3DBF70DF
BE6BB16C
BCFFED20
3C6C7432
3D1DFEB9
BDBA1BA0
3B541312
BE3C853C
3D8BB774
BC9C7FFE
3CB358F3
BB2B2E17
BDAF29D4
BCA21859
3D4E4431
BD9DD11C
BE47D88C
BDF89939
BCAE924F
BE12DECA
3D56B54E
BD2EB3DD
BE1AA194
BE8735C2
3E1424E6
BE855E6C
BDAB3FEA
3D8E6213
BDDCEC85
BE57A4E8
3E29C737
BECB0293
BE0F44D4
3DA28DCA
3E5B762E
BDFE4BCB
3E072FFD
BEAA031D
3D22E5DE
3DDB4FE8
BD85EDD0
BE0FF2A1
3D07D2C8
3DF9029B
BD879464
3DEBC7B4
BE5C78EA
BE49E2BD
3DDFEF39
3DCB86B1
BD3D0AEE
3DDF9E7C
BD9CFC40
BE860B4E
3E218223
3BB7B289
3BDD82FD
BD2D2136
3C519589
BDBDF091
3E0F4342
BE370585
3D033A47
3C557BC8
3E7CDDD7
BD152E30
3E209A67
BE4F7BE1
BE024B34
3D49BA5E
BC98EFBB
BE3D0353
3DA096FF
3DED740C
BD893AF7
3DAE6213
3C14E5D6
3DE4C272
3E282279
3E664BEC
BD35AFB0
3D80C309
3D3D47BF
3C1E7B81
3DD0CF5B
3E70DE4C
3D11B717
3CAD794A
3D7419E3
3E481494
3E4CAF2D
3D2AF577
3E1AFC48
3DFA365D
3E0A469D
3E6460EE
3DF27F5F
BD0B09EA
BCA3315D
3D2B56FC
3D5FDBD3
3DF8FDE3
BE065237
3E1E4FFD
BD880BED
3C7F21B4
3E5882F1
3E5D438D
BDE6DA45
3E896FA8
BD8D0E56
3D0D8DBD
3EA63CDA
3E409785
BD27210C
3E2ADFF8
3C0298CC
3CBF8DB5
3E93AF10
3E7940FF
3D47BAAA
3D35FA22
BC5FACA3
3D9B1B7A
3E8034B1
3E52C387
3DEE89EC
BC359147
BC43B928
3B7AACDA
BD036C9C
BC43E319
3A16BB99
BEAB71FC
BDAD3E92
BD8BCF92
3D8448CF
BE1A4010
BE0725C4
3E21E8A3
BD669BE1
BB98AA86
BD519158
BDD9AD86
BE6543AF
3E0ED0F6
3D849D39
BD62E903
BD932B56
BD81986C
BE45681F
3DCED4E5
3D92ACFB
BD022142
BDF54F37
BD790C91
BD60AFA3
BA87A8D6
BD9AB431
3C8B9347
BE081E04
BE06E7A3
3C90EED0
BD32E8C0
BDAE8640
BE2C5048
3D913D75
BD397BB7
BDB3732A
3DB63ED1
BD8FD652
3D132618
BD479E5A
BDABC72E
BE5E889C
BCF98D8B
BDAA37AC
BCD143BF
BD7A7FC3
3C84BC27
BDBEE4E2
BE216C1E
BDA67514
3D02C3CA
BDCD1633
3D31F14A
3BB178B3
BE6E7A74
BDD661F2
3DB0867B
BCCB1AB1
3D853112
3D0B1EE2
BE57F887
BC8B32CF
BCABB01D
3D2C093E
BDB712A1
BC6BF22C
3CC9E881
BBD4A1AD
3E02B5A2
BDBE3001
BDA6F71A
BD959579
3D69C454
3B4E2D1F
3CF42FE8
3D71F14A
BC316C1E
3D3DBE3C
BC3402D1
BD77BE12
BD4FB656
3DF6440F
BD0BD231
3DBFE975
BE39C023
3CC4F1A2
3C94A6EC
3DD28D86
B9B24207
3DAED352
BDDC4007
3C2B92C0
3D75275F
BD4A5CE6
BDD6CCE6
BD0F14DB
3E04F69D
3D2E9681
3E195FAB
BE31F6CB
BDC6F8AD
3B716F44
3C18B71C
3C7BCA10
3DC706D5
BD942B30
BDC310DC
3E014F05
BE3D61F6
BD077FF1
BD3E74B0
3D156D1A
3D17E026
3E279FA9
BE51E18F
3B6C84F9
3D7B8B26
3CF78141
3C89B520
3DDE646F
BCB08787
3D9E4E6A
BCC1EFFA
3D2E3A3B
BDB8EA7D
BC6A3593
3DA94142
3D949CF5
3D9A3B9B
BDC9A672
BD290ABB
BD84B018
3CD57FFA
3D6A4A8C
3CF95B36
3D1802C1
3C83EEA2
3D872C95
3D1E96C4
3CE13900
BD70E0A8
BD90BD01
3D35A20E
3E1B078E
3CB1337F
3DFEA5F8
BD47C201
3D4A9047
3CDE28AA
3D973EAB
3D807EE1
BC8EBEE0
3D27D999
3CCF97EE
3C82C4D6
BB8BA83F
3E6CD35B
BE9702E6
3E490AFE
3BAD1D04
BD0C22EE
BE394EA0
BF26E936
BDCD8E43
BE4D0C80
3E034C1B
BBF97EDC
3C0576CD
BDF7C1BE
BD1FEC9A
BD4BA301
BE11F14A
3D265ADE
3E320968
3D82046C
3DDC3C5C
3E33DF2B
BF347FDC
3E2AAD1D
3E91DEAD
3E958234
3C0A4C1F
BCF1B691
BEE5DE7A
3E32ECAF
3EA3D406
3E8BB279
BE0DDB55
3E548C2E
BDA53006
3E7C219F
BE977D95
BF184A0E
BCD1F81A
3DCE64B2
BE26006D
3E785B18
BE27967D
BE572863
3D3BD167
3DC5F5AE
BEEC82BF
BD02ADC5
3E920254
3E7C2CA1
3E59899C
3DA2131B
BF4430B1
3DB186DB
3ED5FC5D
3EE59F90
3DD69F49
BE1CE63A
BEA8C36E
3DC80171
3EE05CCD
3E89FB83
BC5A48B6
3E80F451
BE09949F
3EFBBBA5
BEB709D9
BE594C88
3DA35EFA
3DF25B31
BEE60E52
3EC9EB85
BE8A682B
3E10B136
3DD9BBAE
BC39A5A9
BECBAD9F
3DA87F45
3DE5CAB0
3E9D12EC
3E480BED
BC277E5F
BF2D5F67
BE876EE7
3F165636
3ECD9685
3E18AEFB
BE95E311
BF09F4D3
BE20DA5E
3EBF8F8A
3ECC68CB
3E281627
3DFDCE7D
BE04F97F
3F044502
BE3323BC
BCF97EDC
3DDFB613
3E11B973
BEF2F145
3E966C4C
BE7508B3
BDC68230
BDB05A71
BE26366D
BF0CE92D
BD6C43F6
3EB139EB
BC6310DC
3B52C387
BB93C03C
BF4FF76A
BF16BAF1
3EF5562A
3EB80086
3E0DE871
BE8C7043
BEE08206
BE73C18B
3EBAACB8
3EBCE7EF
3E671FBC
3D9481B2
BE35FA66
3CF47304
3D3724FB
3E208A69
3E46D938
3E7C621B
BF4A6F93
BDD867F1
3D8670E3
BE5D690A
BE0A500D
BDB1A75D
BF6E13A1
BEA9DFDB
3EA42EDC
BC0BD231
BDB50870
BD3EA3DF
BEEC1B11
BF03926C
3EC7AD8E
3DA4F228
3DDD3FE2
BEA3C89F
BCC093D9
BC037B4A
3E4F15E8
BCC562E1
BCFAAAC1
3D0435F0
BD03D578
3CC7D1BB
3C03558A
3E04C448
BD7292C5
BC9C1F86
BDADD69D
BD2860DD
36C9539C
BE0AB3AB
BD7ECBB8
3D077681
3DEE6320
BC7B3B75
3E3C9689
3C516335
3D008C82
3D461416
3CB01EAC
3D2AD2DD
3E288DB0
3E0E27E1
BCA7264A
3DE16CE8
BD9BA7FC
BD557258
3DE89763
3E2FD75E
3C6B8D82
3D3F9831
BE18E193
BD05B9E9
3E0EC3DB
3DA0B45B
BC86D938
3D9A96D5
BD836199
3C43AC93
3CF90D9D
BDEA82A5
BD3481B2
3C93E814
3D9907D9
3E2DD8F9
3D818E75
3CC7B02D
BB2FE60C
3C22F05A
3CCA2B9D
3E3D35A8
3DE8919F
3E4C01A3
3D8A697B
BDACE13F
3A9C1B54
3E2F6B1A
3BBA732E
3ECD01E2
BCC18F82
BD6E49F5
3D753E70
3B58DBCF
3D5E6DDF
3E9F9F02
BD119CE0
3D4F3238
3D13A81E
BD1B6A1F
3D220579
BE140464
BE0CAFF7
3D479B35
3E6725C4
BE097FA6
3CC75C4B
3D467382
BE0D61B3
3DA400FC
3DF864CB
3E1D3309
BC0BC59C
3E133B10
BE16DEFC
3C86CCA3
3C7A54C5
3E6D8B1E
BC8198F2
3EABDFF4
BD696702
3CF72D5E
3E10A88F
3E1CEBBC
BCB7C569
3E5AD96A
BC9AD42C
BDB101B0
BCB30942
BDF18FC5
BC25A46A
BE2CCAB4
BD940BBB
BE383276
BC30EA18
BDD5BFF0
BD484D77
BE597CC4
BB301861
BDDF58C1
3B8C5005
3C9D94D1
BE5D594F
BD53586D
3C6F1349
BD44C48B
BB5C65C7
BD251A00
BE704FB1
3CDB573F
BC7EA811
3D32BFDB
3DF0C4DF
BDE1F3A5
BE51E9F2
3CBCE209
3D68DEB1
BD6E9AB3
3D94E981
BD6BEAD5
3DE297C0
BDDB3D08
BD102DE0
BD443A21
3D8E1C58
BC32D906
3E07E9D9
BE1AB53D
BD292924
BD75C9E6
3D88893B
3D5713AD
3DA084A5
BDE597D5
BC2F965B
3C2C8E69
3DD0ECB7
3DD01EAC
BC7FDE72
BD32CE89
BC595571
3B67BC3C
BAB06C44
3D9B0037
BDCD887F
BCFA8B4C
3D448063
BAC8ABD6
3CD3910C
BBCEAAF3
3CFCAC8E
BE7A1405
3D41E8A3
BD5B61BB
BC83FB37
3D3B1077
3DFF9592
3CC358B0
3CA8027E
BD4D60A6
BD9FD157
BCFBEDB7
3E12DA98
3C496894
BBD32831
3D043D47
BE103C4B
3DB8C5CA
3D155D5F
BD99FD37
BD543D04
3DCE3D60
BD9632C2
3DA1C68F
3D4095F2
BE0D523B
BDAAD0C4
3D3A7A85
BD7549F9
3DC4D3BF
3DF8194C
BDF89268
3CBFDD66
BDA35DEE
3CB01861
3CD2FC26
3D945E0B
3D89B739
BDE7789A
BCB63B25
BE0F6C6A
3D97D849
3DB5E743
3E29C0EC
BA1B738E
3C0FBCA1
BD548777
3DBBE4CD
3CACC921
3D248E8A
3CCBB1AF
3DDD5348
BE3B0FF1
BB9BB6AA
3CA671EF
BDE57B85
BCB51DEF
3C9A1555
BE504BC2
BD68661B
3AF92AFA
BE1D8772
BD1566CF
BC912770
BD853198
3E0CD2D4
BC9E83E4
3DCE52DF
3D9C2B0F
BD582BA6
BC6F2C73
3D5C91D1
BCE72757
3E21AEF7
3D1E3971
BCDF71EB
BD6DC098
BDB7D1FE
BD1D1C3B
BCA63737
3C495BFF
BB86DF83
BE6ADB40
BE3E742A
BD97CFE6
BE20BBB2
3DAF483D
3D1716D3
BE5872B0
BE181F97
BDC06EA0
BDB62952
BDDD47BF
BCF1A3B1
BD08ADEF
3D895F24
BE27EF5B
3E516DB1
3CD9817C
3B2C3A86
BCB09E99
BB48ABD6
BDDC0443
3E2B86B1
3D7B3E9A
BD97AB32
3E1331E4
BDBA7C9E
BE2373F3
BD647992
3D6889C2
BCC08744
3E289375
BE123A6D
BE57EAA3
BE98CBD1
3D7A7009
3CD6ABDE
3CF6D97B
BE8A4EBE
BD95A858
BE175297
3D7F26F2
BD9AA79C
3C14E1A4
3E632229
BE28472C
3DDBFCEB
3D781B65
BD3D77FB
3E3CD24E
3DA20685
BE818BB5
3CE29308
BC1FB613
BDEC6AC2
3E6D7907
BDF4CEC4
BE3B65AA
BDD71C11
BBD67FD4
BDAD4FDF
3D90CED5
BE34C61E
BE39D2BF
BE8A3077
BC79096C
3CFEF7C2
BD80303C
BE691538
BDBF6988
BE0EE808
BD02F944
3C5AB9F5
BD27FF58
BD4489D2
3C10928A
3E869F6B
3CC0B136
3C28198F
BD9AF428
BCD60631
BC888723
3D51A006
3D9891E2
3C8B73D2
3CD84902
BD026677
BD4C9108
3E02F273
3D98A4C2
3B99FA12
3DE22468
BE1F8727
BD563993
3D3DD335
3D1CBBC3
3C45718F
3D5CC31A
BE09285B
BD61BB06
3C817DAF
3D8CC576
3CDED6BB
3D3401C5
BDC5375D
BCE2584F
3D9B7BF2
3D7AE03B
BB0BB906
BC48CD64
BDC4BCAE
BC26EB92
BD1CAAFC
BAB502AC
3CBBB624
3D239820
39D23D4F
BDABE0DF
3E1BC771
3D3E0158
BDC54691
BD80DF59
3E06338B
BD7B2357
BC84C6A4
3D2379B7
3BCF52B9
BCA0296B
3D95FF61
BD5857B0
3CA009F6
3C0B0D0F
3D3EB8D8
BBA47ED0
3D1054AC
B9B99913
3DBF4129
BBD05F29
BDA31487
3DE5553F
BDC3DEE8
3D060243
BD5246BF
3ABE7297
3C53B29A
3E11476B
3D12CE03
BD83DB3C
BD684599
BD5C347F
BDE514C2
BCE8F084
3E0D6A16
BCD2DCB1
BE3E5929
BD7FAD2A
BD41A7A0
3D82584F
BBDCF462
3CE4A9CE
3C0055FC
BD53AD5C
BC91D367
BDAAED9A
BCEC2CE4
BC4C6823
BDF17B53
3C7A58F7
3D857C91
BE5262CC
BD50D5A6
BB8BB906
3BC3547E
3D9183B6
3E4913A5
BE5503FB
BDF60392
3B9A88AD
3D3A3876
3CE6A551
3D4A32F4
BE26149C
3DCB7564
BD93EE5F
3E0C447C
3D8BE61D
3BEA0FD4
BC32D4D4
BD1C50CE
3D8EF45A
BBA90CD4
3D246E09
BD9ECF64
BCE85122
3D7D9557
3C3D8BE7
BDB4F69D
BE143351
3D381F97
3CCA6224
BD1DD7ED
3CCDDD6E
3BD8F4F9
3C170718
3DFC9D5A
BCFE0AC8
3D95E95B
BC203819
3C125BB8
3CCEF88C
BE0F1CFC
3C26CA04
3DFEE675
BC0FEAC4
3D3E3194
BCDB8FDE
3D5ED7C7
3E13DA30
BD0D690A
3D633ACD
BD17C915
BB6C84F9
BD098D47
3DFDAAD6
3D114B16
3D8662BB
BDD0AAA8
3D484F90
3D086595
3BA1F080
3C8389F8
BD40A394
BC95E5B0
3CE8F6CF
BE34EDB3
3ED8DD83
3E0621B8
3C6429E1
BDE5EFE9
3C7A7653
BDDFD8AE
3E9BB880
3E1A95C8
BE21E1D2
BEAD27E5
3CAAF145
BDEEF1BB
3C4BD556
3E04BF4D
BDA3F35A
BDDC0E39
3C332053
BD75D031
BE327B70
3E58BF3C
BE8E9C45
3D9AB96F
3C370692
3D70307F
BECE7968
3D1FE21E
BE7743E9
3DBE01DE
BD9FA094
BE26A37B
3F0A76D9
3E44ED70
3E69D990
BEEB63F5
BDE27957
3DECD185
3EB038A0
3E8B777D
3D8C79F6
BF0DAAA4
BE14506A
3D9C2C1B
BC8AB92C
3E8D26B7
3CC02F30
BE237154
BD945F18
BD8954A8
BE5100E7
3E06DBD7
BCB81F97
3DB5EFA6
3D9239A4
BD58FA37
BEF4666F
3E736A83
BDD332AD
3DE8D7E0
BCD44780
BDBD1809
3ED7E9B8
3E0DD8B6
3ED4FD8F
BECAE6C9
BC15703F
3E8BAFD9
3E8BA323
3EB51655
3D6874C9
BECE1A82
BDE12407
3DADB164
3CD3586D
3E964BCB
BDB5F139
BE305037
3CFCA42B
3C946C33
BE0B6FE3
BD30C34C
3CBFF477
3E494E5D
3E1524C0
BE79B90F
BEED425F
BDB79E9D
3CC62A1B
3E83CF70
BDB530CF
BE117B96
3EEE2F38
BD9DE69B
3E89E5E2
BE8E5A57
BD07E38F
3DBF6556
3E805E3E
3E50F6AD
BC769878
BE9896DD
3BA03C4B
3BB502AC
BE3F9097
3E254CDB
BE1E9BBF
3C83FF69
3CBE553B
BC191BC5
BE1D4174
BE78476F
BD86FD65
3EBC729F
3E13F0BB
BE4878FB
BF0FD32C
BE96DE12
3D8F5126
3F1CAB50
BD8A643D
BDDC50CE
3EAB46BB
BDB271BD
3DC963DC
BD924C83
BD49F517
3D91EFB7
3D8051CA
3EAC6541
BDC3C212
BD88155D
3BF31B15
3E246738
BE6E18F0
3E1C00DA
BE6C0A07
3D24A6A8
3D55F245
BD2AB042
BE8D8299
BD5903A7
3D8EBA28
3EA36502
3E3A426C
BE2226C4
BE1EB8D8
BE7DC012
3DB62C77
3F242EA9
3D45CFEE
BCAF9874
BCDCF894
BB1BE8FF
BD2A36A0
3FAAC07B
3E2B73D2
3D7D5A9F
BF157D18
3ECB777D
BE857D5B
3DDFFB48
3DB89F84
3E69C023
BF3DDA49
3C85D745
BDF6427C
3E87279A
BD5E2AC3
3DFDD4C7
BF519503
BE0A1A50
BC963348
3DC60E52
3DDA0275
BD1E1F3A
BEB6C6BD
3E8CB09F
BD00E6B0
3D6DCA08
3DA9D389
BD67210C
3CC766C7
3EF04D34
3D473797
BD7ACA36
3E8A69BE
3BAB1D50
BF26D15B
BDA83A97
BDF45283
3E646A1A
3E64DD2F
BE5A8F3B
BF5133B1
BE9FD545
BE8E1EB4
3D946024
BD249C2C
BEB5FC3B
BF0BDE1E
BD44D339
BD0A88F0
BD8C32A9
BD99D12D
BE02FEC5
3D8789E7
BDB15055
3DF5D702
BC8945FA
BE4962D0
3DBD1FE6
3E18A15A
BD19AA61
3DCA28FE
BD02A348
3C1AF188
3E1FAD2A
3CBACB43
3E4520D1
BB58BA41
3E942F40
BD3BD48D
BD2FC265
BDF7E77D
BD8AC322
3E407D4E
3F231B37
BD374ABA
3D6C55C9
3E6DD5D4
BE8239E7
BC9E603D
3F56A77A
3E0EDAEC
BCF33659
3EA9EE03
BE3E5040
BE08D36B
3DEE9EE4
BE31D580
3E24912A
3ECA99D9
3D746FDF
3DF23704
BE2148FE
BCD0CE4F
BDFA83F5
3EAF1EF3
3D71140A
BD233376
BE820F2C
BD4E29FA
BE267E41
3E731D71
BE844B0A
BD012F0A
BED88073
BE13BDE0
BE6AAA7E
3DEA4873
BF14AC3B
BCD9018E
BE8509C0
BE342BB6
BE855001
3EEBBCD3
BD898809
3DED4FDF
BD1D9A0F
BD4FF759
3E8B8306
3EB2B778
3EB5206D
BDECCD53
BDC2D384
3DD382E4
BDE4406C
3C2593A3
3DCEF0AE
3C8CD63D
BD7AF859
3DB51ACA
3E86D091
3E1B3E9A
BDB485E4
BD9401C5
BE89DFDB
BD256580
3E2475E6
3C66601C
BEA69D95
3C1A73B4
BED93AF7
BDF0DD83
3E1C7C52
3E08E6D1
BEB6B4EA
3DDACBC9
BE21FFF8
BD2B6178
3ECA6480
3F20E9A3
BF0059FB
3E98F1B2
3E5CBEE8
3B13B7D8
3A339192
BCA81DC1
BC6EA20A
BB54ED2D
3C02BA5A
BD5DB014
3D6A886A
BDC2FA51
3D6F661F
3DD426FE
BC1CB685
3D53CBC5
3CB81301
BD270E2C
3BDEE350
3D1DBEC2
3E3B90EB
3DB03644
BDE2DF0D
3D25A576
3D3EDC7F
3C661D00
3D963DC5
3E27F306
BDC8CF7D
3D12DDBE
BD72580C
BE04CA92
BD92EF0B
3D1100A4
3D1D6495
BBF0F16F
BDB3B6CC
BDE8A82A
BE413C25
BC4D0BB7
3BC72192
BD8EA854
3E22EEC8
3D9C1590
3DBDEDF2
3DDB0037
3CFFD1DD
B9E84274
BCD6B442
3DDD1676
3E5476F3
3D9440AF
BDB0ADCD
3DB4727E
3D6BB880
3DBE7968
3E30913A
3E3BEE3D
BE232C1F
3E31819D
BE852418
BD103750
3DEA771D
3DDF7942
BCC855DA
BC9C4FC2
BE64CCEE
BE050D6B
BDB5F99C
3DDE53A8
3DE8C79F
BDFA8E71
3E3C7DA2
3D3790FB
3E99A88B
3D9B23DD
3DD97460
BE1DF86E
3E01F7D7
3DA4A16A
3EAB126F
3D6F251C
BC526741
BCE0EB68
3E113123
3E3141A7
3E8BBF94
3DDBA66A
BD310DBF
BDDDB09A
3E41700D
3D644956
3DB3F749
3E1054EF
BE1D3240
BE2FAC1D
BD05E4E7
3C6542E5
BD1904B4
3D7AE148
3DC69F06
BE815DB3
3E95A4F0
3E40C459
3E252DAA
BBD8A97A
3E4ED2CC
BE75A78F
3EB0D3F2
3DF44029
3E30E347
BCC8B220
3D93C3E7
BE1A3DF7
3E655C96
3E3F9CA6
3E36F113
3CC68662
3B48DE2B
3C88EFFE
3E45C359
3D99C27F
3E08F14E
3DD62281
BE0536D6
3CEB0D95
BD43504C
BD41387A
3B817764
BC8858FF
3DE038A0
BD6CCD53
3E5D4281
3DDC6541
BD5B823D
BC455C96
3D304253
BC2500D6
3E80E62A
3DE6338B
BDC65BEA
BDD13943
BDBC3B4F
BDE752DB
3E81ACDE
3E05F677
BCCB46BB
BD4FC611
BDC925FF
38CD8559
3E93A1D3
3D4D2A20
3D5E279E
3D005815
BE2191DE
BD7FC979
3E2B26C0
3D091080
3DF3DFB1
3C09C5E7
3CA72431
BCEC17EC
BD1DE58E
3B89118C
BEBE5669
BE5F27FE
3E20307F
BD5EECC0
BE3A25D9
3E77E564
3E1AB1D5
BDD64CF9
BD249E45
BE526B72
BCBF1412
3EAB7CFE
3E9036CA
BC1D6ADF
3B216A48
BEB5CCC9
3C5084E8
3E6E8039
3F0AD320
BC9A1FD1
3D4200C1
BEDCA44C
3D4E9707
3E189DAE
3EE214F0
3E25186E
BE353C58
BED69857
3E56D7E9
3E3F7F06
3E85C316
BBADAB9F
BC07980F
3E0B8AE3
BE698E54
BE66DF40
BE61C715
BD32CC71
3D44C597
BDAA58B4
BEAF2C52
BE1A847B
BED074C9
3CA02752
3E0B43D9
BE332379
BE87164C
BB5D1E54
BEE83F92
BD85B8DC
3EA37EB3
BE88A17B
BEB21944
3E811DDE
BEE090D6
BE15C91D
3DDF444E
BE6985AD
BE86BDB2
3E896180
BE3B738E
3DC73F75
BCF861A6
3DAFAC60
3E7215BA
BEA562BF
3EA2A68F
3D176252
BD942785
3D837A3E
3E54C5DA
BEB3F24E
BD8EE286
BDC6AA08
BDDFA094
BD8D80A1
3CB4F82F
BDCA9585
BE87403E
BDA5B7D0
BD0C49BA
BD965C2D
BEBBBEEC
3DA8E369
BED3DDDB
BDD53E70
BE221C04
BE55B3E1
BEEB912E
3DC08E15
BEA3732A
3D5D0B74
3DA239E7
3D753932
3D3748A1
BE15E52A
3BC81D3B
3D66E760
3D38854D
3D6B239A
3D761459
BE0B912E
BDB15A4B
3DC172AC
3D9CDAB2
BE522CCB
BD7F3F10
BD84851B
BE524207
3DD37C9A
BD591DDE
BEBA3B79
BE55F41B
3DD871E7
BE892D99
3D0677B4
BDCA6330
BEA85059
BE78509C
3E1CE6C1
BE120C8D
3E2F5CAF
BC7EDA66
BE0BC6A8
3DC9C993
BE2D0785
3DE6EFC3
3E13BB84
BC61E2DF
BD9C8430
3CEA0770
BE39FC2B
3DC86402
3D4589AD
3E75E28B
BE714270
BE368C69
BE0DC337
BDC7C6B9
BCDF6DB9
3D9A06A7
BEAB7E91
BE5EDF1E
BD050BD8
BD2E7A31
BBD4ED2D
BDF4A904
BEB1FE22
BE954A5E
BDA20CD0
BDD266BA
BCD38477
BCF1B25F
3D0E3BCD
BD1F0C35
3D1D8F93
BE86084A
BDA8398A
3D86516E
BEBDEA03
BE4FAF86
BE0148BB
BD4D551D
BD12CE03
BDA1D085
BE1639D6
BD0B966C
BD6FC265
3D9A8C58
BC973322
BDB87725
BECDDD4C
3E2369BA
3E0CDB7B
BDEB4D05
3D9A7979
3E093D53
BE904C27
3B9DBEC2
3DD3F291
3B09D27C
BE316441
BC66E654
BD9E64F5
BE950A03
3CAF965B
3E41ADA7
BBBB6ED6
3D9D5E4A
BE9E1D65
BE901A9C
BE569510
3D79EBEA
BD83D46B
3CD4CB9F
BEDC8755
BE67F66F
BC30A6FC
3E7186DB
BD0BBD38
3C5B8349
BF570707
3D1DA598
3E1C0011
3E58472C
3D9C0FCB
BDA54478
BEDB228E
BE0B3893
3C7733A9
3C9A3098
BC8B9778
3B5D93C4
BE13A861
BE8F53E7
BD25ABC1
BCDC93EA
3DD2502F
3E020B3D
BEE3951C
BE0026CC
BEC5729B
3E35CCC9
3E89526E
BE0A209B
BEB9C1D7
BD6F7E3D
BE8CFFC9
3E8E6080
3E07D6B6
BE3CDC87
BE5134CE
BC976577
3C923A2A
3D98F8A5
3C71172F
BE8CA255
3E43F3E0
BD5BB9D0
3D33B85F
3DF042D9
BD951ACA
3C0750C2
3E4CDC01
BB7CD680
BD35EFA6
3D6136E7
BDB3FC01
3E02849D
BE17D88C
3E914DB6
BE4E32A0
BDD2146A
3CF7FAE3
3D673605
BDE023A7
3DE440F2
3E8BBE01
3E8806F2
3C71843C
3E95147F
3F059B6F
BD6C11A1
3EA4AB3F
3E5E496F
3D442FA5
BD138AC2
3F533A58
BC11C087
3B2DEEBB
BEADC0DB
BCCDB9C7
3E676E1E
3F480BCC
3E116FCA
3D2D7A57
BEC54435
3DC8E8A7
3E58F430
3D356217
3DAACB86
BE1F20A7
BE84A1F1
3CF9591D
3D80E5A3
BB2B3EDE
BE1C197E
3DB5818C
BE5AB3AB
BE0ED5AE
BD9F8445
3E8F9A4A
BEAAB6AE
BD8CA255
BE6323FF
BE480F99
BE39F1F1
3F2324B7
3AE496EE
3A2C7DA2
BE5EE2CA
BD945A60
3E88765C
3F31FF71
3EDA6C5D
3D9DB014
BDBBCDBC
3AFC2EBA
3CE40421
3D1A72A8
3D187C63
3CD04A30
BF3713F0
BE16DDF0
BD48472C
3D97F9D7
3EC59C06
BD84A83B
BE7410B6
BD47FCB9
BE9950B9
3DC91106
3ED49C0B
BD74A44C
BD9E6ABA
3CC3ED96
3C8B3700
BD269CED
3E2AAEB0
BD023FAB
3D93AE68
3D7D933E
3E0AE968
BD9D449A
3E9BD578
BC69142B
3DD9D020
3C6FD007
BE1A3D71
BDDBF163
3E94E960
3E0E889C
BD1B0EE5
3C8F0846
BD1A60D4
BCED959A
3E97B784
BB95B78D
3E1D39DA
BD4A04D1
3CFF7597
BE0672FC
3EA7C86D
3E21159C
3E327F5F
3CCC7086
3DB23897
BDDA9436
3E7990F3
3E4723EE
3E9572DE
3DE80CFA
3D687E39
3D3C6DA4
3EBE7CD0
3E80127B
3E562889
3D318549
BEA6B789
BE8E84AD
3EA49082
3E99AC79
3D6EF912
3E27CBF7
3E977425
BD3A0621
3B3E0DED
BD8256BD
BD95D80E
3DDF82B2
3CAF5FD4
BDA4C166
BD5E6256
BDD0435F
BDB7B17D
3D3DFE33
BD74E22A
3E0B5244
BDB61CBD
3BF648C7
BDAEB91B
BE573190
3D8809D5
BD5CCB7D
BE20B136
3EB2D55A
BE6BE879
BE5FB3FA
BDA97742
BE8AFD76
3E63B7D8
3EC73ECD
BD1FE436
BD3C44BF
BC6E7C4A
BE6884C7
BE68AEFB
3CBA3A8E
BE7883BA
3D1E321A
BDABC72E
BE637B4A
BEAE5BC8
3DD7646B
BDEBAB65
BC50F1F5
3E6E7C07
BECA12F9
BEC56430
3D3090F7
3C624BBA
BE627FE5
3EC738C5
BEBFFC76
BE9BC98A
3DDF00AC
3BF0C77E
BE4F71EB
3E73C85C
BE69F3C7
BE6CEE5B
3E941B76
BC20F4D8
3988509C
3D0EDC3C
BE96978D
BE1C67E0
3DF8B0D1
BE4C1D2A
BD0E1B4C
3D625636
BED9FCF4
3CA2CA9B
3E0E78E2
BD87253E
BDBCCEA3
BD743FA3
BEE4955B
BCA1858C
BD9FF716
BD8A4E38
BDD7DE0D
BE0738E7
BEBCCCEE
BE134613
3D87C9DE
BE089B52
BE3B9347
BDA2F512
BEEFF349
BE0C99AF
BCCC78EA
BEB41E15
3D069C67
BCFD5ED0
BA688590
3D124BFD
BD04E619
3F8C0DE5
BD4A44C8
BDB5104D
BD26D480
3DB549F9
3DBD7ECC
BE4FA659
BD2D6777
3DDBD513
3E131E3A
3E0F1DC5
3D756A7B
BE912E62
BD8A46E1
3DBE5A79
3E533DB0
3DE4D120
3D8425AF
BE021251
BDA43ED9
BBF1E4B4
3E053587
BC630CAA
3DC93D96
3DF18330
BCF7CCC0
3C6AFEE7
BB3912DC
3DD0D738
3D5E53A8
3E151D69
3B7C829D
3DC270F4
BE3ADC0A
3D57F413
3DA7485E
BC85F288
3D69068A
3E44E50C
BD310774
3D8CF638
BDD70047
BDDB7521
3CB7C782
3DA0A41A
BCCE789E
3AE1932D
BD7723EE
BCAC7B89
BD283D36
BD0A009F
3C71F57B
BDA5DAF0
BD88EDE5
3E31BAC3
BD320429
BDE54CDB
3CDF47FA
3DED9946
BE0DF2ED
3E09B6F6
3CC92DDC
BD6EAC86
BE49B34A
BDB4B620
3D622920
3B14B381
3DF66ADB
3C3395C4
BE5E87D3
BD16DA01
BDF00EF1
BC70A1BE
3D67C8D2
BD960525
BE8405F7
BDA54584
BD5D3BB0
3E292429
3CBE1A82
BD9BEC25
BE4703B0
BDC64884
BD1ECE57
3E8CFFA8
3D888723
BD6D02CD
BD3688BE
BBBE37DF
BE08D866
3E881B43
BDA183F9
BE102214
3CD76252
BEB09BB7
3DAAC3A8
3CA09678
3CE00B03
BDCC5868
3987CA64
BE29784F
BD9F06F7
3DD2A27F
3D40B780
BE21348B
BDEC100E
BE378466
3C8281BA
3E068C69
3DFED528
BCF04791
BE4D7A57
BDB5C5B5
BD17C5EF
3E10B30B
3E17507F
BB91E215
BDA9E343
BD950F41
BD8EFA1E
3CE670E3
BD39BBAE
BE355326
BD7227D0
BD7544BB
3D833DF3
BB763800
3CA1016D
BC5C5932
BA5BAD3A
3C4FAEFF
BD65332B
3DBB3F21
3B2936C6
BD0305D9
BD37A4E8
BCBF0564
BD92D55A
3D4B6630
BCCCBE1F
3D5F4A12
3CA88CE7
3D2C4F7F
BC80E497
3D0BA626
3D32580C
3D1185CF
3DBD7668
3DEF776C
BD2734F8
BE2D2FE4
3CB1C433
3D0CCCCD
3D12556D
3D367F4E
3D151612
3EE2A92E
3D469E80
3E49A911
BE700B03
3DA0029F
BE408787
BD547065
BCEDBD73
3D9207D5
BD88AE75
3E140421
BDD25B31
BDEE9468
3CFA5D29
BE20F6F1
3EA5B4EE
3E0660E5
BDE27E95
BEC338B4
BDC0A394
BD3D5BAB
3E64EB57
3E4C1A8B
BE8C0A4A
BEA97C5F
3D21B4BB
3E73AB86
BE600043
3F1AAF8A
BE602DE0
BE962ED3
BDE1F42C
3E582236
3E25AAB4
3E0AAA3B
BDBF7C67
BC5E3327
BE19D0A6
BD2FF7E0
3EC114D3
3E35D895
3C81BEB2
BEA471D6
BDFD97F6
BDF4DA4D
3EC1FFF8
3E8D6606
BE25DFEC
BEBB3871
3DA74320
BE40AD04
3E8E6E44
3F2C4231
BE87255F
BECF355D
3D733FC8
BD3B9CFA
BDBDC726
3E93A626
3E174C4D
BE9107FB
BD99D0A6
3E4B8455
3ECCB76F
3E406D0D
3C1AE925
3D022DD8
BE107CC8
BCD1B930
3E66E115
3EB44695
3D76F8F0
3D0FABDA
3CD529FE
BE8FA5D3
3E1CCBC0
3F3ADE76
3D9A98EE
3E2A06A7
BCDE00D2
3DDAD8E4
BDC116EC
3ECA411C
3EA57D39
3D986EC1
3DBE69AD
3EC61AC5
3F462EE4
BE68BDEC
3E8FA227
BD8B6E0D
BDA0CC79
3D48CD64
BE2636B1
3D51B0CD
3C5701DA
3EC66517
3D0094E6
BE9C1F86
BE4F3062
3E420C07
3E1DD441
3EC725E5
3E2DFA44
BD57B41C
BE659296
3E0A8A40
3D56366D
3E9B9B67
3DC20685
3EB15098
3ED35393
BEC4A87E
3E240F24
3EAA886A
BD187D70
BC1C1722
3EA99BB2
BE252370
3E90B08E
BF13BF1F
3EEF5D9A
BE8471D6
BE425461
BEE6B357
BDE8BDA9
3F1367F5
3EB60115
BB5DB552
BEA1C044
BF301755
BD5AD96A
3F3175E2
3E542635
3E9B37A8
3D762F9D
BF6431F0
3D0F776C
3F0DD13D
3E099243
3D5511E0
3DA69510
BF5E5DF2
3D85E56D
3D46DF83
BE2C37E7
3D215550
BAF861A6
BE2A8DA8
BE21272D
BEC027B7
BD1492FF
3D092FF5
BC992429
3CBEFF19
3CA89763
3EB93101
3DCD21BC
3DCFD9FD
BD2B990B
BD434A02
3E0F761D
3CF7A919
3DA2DBE8
3D79B995
BDC82F94
3C75DBBA
3D610060
3DCA9931
3D1085F5
BC04F095
3D631A4C
BB16249A
BD58F0C7
3C9567DC
BCD338F8
BD04DCA9
3DAF8727
BD916B12
BD53C9AC
BD490A35
BD040F24
3D24CF8D
3DEE6645
BD115CEA
BE2F6C27
BE3359FF
3C94D0DD
3D5BEF4A
3BDB9C73
3D7FA6DF
3E0BD09E
BD336AC6
3D863B69
BD6E5DE1
BAD23D4F
3C90B631
3D9BB83D
3DD4245F
3D2B0425
BD376D55
3BFC371E
3D1AC8A3
BC74FD6D
BD97F5A5
3CE6BE7B
BD9DBF48
3E1B79D9
BD13D85A
BDE5E2CE
BD31C433
3BB30B5B
BC621102
3C02D384
BD176146
BE101F32
BE5E09FF
3D37BF1F
BC2979E1
BDC83F4F
3D9C5693
BD1B5526
3D0D5736
3C6B6391
BD162E0A
3CC6C54C
3C389D6B
3CE51F3F
3E42B3CC
3DD93FF2
3CBCF701
3D5B5632
3C8C5005
BDA51EB8
3B1539B9
3E228177
BD327DCC
3E0F5126
BDACDF26
BDCA17B1
BD60D888
3E17A4A5
BD9661F2
BDC85DB7
3BE368F1
BCDE1C15
BD0769EC
BDA327EE
3DBF290B
BD7B6567
3DE12275
BB0472C1
3CC58256
BD3838C1
3D0F82F5
3D192C8C
3D84C597
3CDFF60A
3E5B8412
BCAA8EB4
BA858FF7
3D4A3A4B
BD9B7415
3D58D584
BC1FB1E2
BC49C90C
BD27ED85
3CE4E26D
BE004E1E
BD577EA2
3E00D90E
3D6DA123
BDC23D0C
BE404D12
BE117A46
BD243DCD
3DEC4EF9
BCF3C925
BB5801B4
BDD83D79
3E15857B
BCEE5EEE
BD52EF91
BDA682B6
BDAA4229
3BBDD335
3DCCC576
BD82B5A2
3E1E4B02
3D48F649
BDED1288
BCEE34FC
3E18E087
3D54C76D
BD2D538B
3CC9FF93
BD505D10
3E84CF8D
3D2D538B
BE3F533F
3D2F0175
3DC14B5A
BDC598E1
BD5594F2
BCC4A622
BD405708
3D916766
3D3E132B
BCAF1887
3CD1AA82
BCD62BF1
BD4726D0
BEB53AC5
BE475E63
3E5EB181
3E51B110
BE6E98DD
3DF76146
BE13A711
BD20168B
3E31EDE1
3BFC371E
BE691106
3C950FC7
3D126D8B
BC7B71FC
3D84DB9C
BEB1DE6A
BEBAE42A
BDD68D76
3E8E1EB4
3D8D1C7E
BDC7BB30
BEDAA002
BEAAE48F
BC98B71C
3E912A95
396E06D9
BE353155
BE7EAF25
BEA35222
BC129ED4
3DEE9D52
BDD2B66B
BDA4C405
BB65B424
3E5FDE2F
BDE87B9A
BECE3B69
3CB41BFC
BD84E50C
BF14980B
3E8AB735
BD4A7504
3DCADABA
BCE14DF9
BD4F8E7E
BF66E8D1
3C245D42
BCA04296
3F0AEDBB
3D96D43D
BD96FF3B
BF143F0C
BE8A3F03
3DA2528B
3E200863
BD019E30
BD38B370
BE356191
BE6465E9
3DB490E6
BE995A08
3D935E31
3D37963A
3D8AC42F
3E0078D9
BDEA68F5
BC90F734
3DDC2092
3CF65343
BEBEAC00
3CDD8516
BD793BC1
3EB53177
3DD0C910
3E0D1AEB
BED51740
3DB903A7
3DC6E009
3E767126
3D5DFA87
3B829CFE
3D7AD4B2
BE18B978
3D761ED6
BE992EA5
BDBFC6DA
3E084231
3D413B9F
3D618EFC
3E219610
BF0F0DB7
BD9A6A44
3E2CDF26
3E470B8D
3E83A451
BD504B3C
BDC193B4
BC8969A1
BE56B8B7
3E9B0B18
3E3A133C
3DBBB7B7
3CCA59C0
BD9273D6
3D7F5C6C
3F0C5AB4
3E7C1334
3E3D82FD
BDEC8041
BE4DA3C2
3DE290EF
3E8DA251
3EC1E14C
3D9BD6A6
BEEDF0B3
BDF66278
3CB8609A
3E7C5586
3F173CE6
3D3D9DBB
BE662A5E
BE037825
3E921A2E
3EA3D61F
3F15C8A8
BD8AB3EE
BE4E0503
BE02EAD9
3D3B6FE3
3E4B79D9
3F1EF599
3E3A82E8
BE718549
3CA8155D
3DBAC4F8
3E13A2E0
3ED02321
BE1A51A0
BEC9B4DD
3E0266BA
BE02CA58
3E5C7150
3E7D4E4D
3DC77F6B
BE6AA002
3E57531E
BE176F2A
3C63582A
3E416228
3E80DB6A
3E2D12CB
3D413CAC
BCB0F8C6
BCF74470
BD1F0C35
BCB67E41
3EFA5F85
3CB0A4E3
BDBB530D
BD0B4BF9
BC20A527
BD61986C
BD007FED
3CEE7C4A
BDDA8B4C
BE09E343
3D0C5C9A
BD8EF45A
BCF26289
3CE1AC58
BCCF1801
BD2745BF
39DD3FE2
BCA647FE
BE405858
BCA5CA2A
BC9693C0
BDBAD107
3D1273D6
3DA64F55
BE315F03
BD05DA6A
3BD5B680
BD0E5711
BD56312F
3D3572DE
BE3A0A96
BC94C448
3ADEB0FB
3D523F68
BE316441
3C89D8C7
3D2C4934
3D753F7D
BD467DFE
3D757C4E
BE05D420
BC59988D
BDC9B5A6
3D8A94FF
3DE3810F
3DB001D6
BCE1EF74
BC1BA5E3
BE04280B
BBAFDDA9
3D8E22A3
3D8F97EE
3DA70004
3CB649D4
BE1F401C
3CBB645A
3CB19829
BDA637BD
3DAC3B0C
3DCE8427
BDAE2110
3D5F9BDC
BDB4D489
BC843E53
BD9DFA87
BD9A9DA6
3DB10881
3D8CE91D
BD320A74
BA8051CA
BDD53587
BDB03537
3CEA593A
3DB96AF0
BCDEC3DB
3E355326
BD418B50
BD8492BC
BD570A3D
3D4E23AF
BCB41BFC
3E1B291C
BD4EF77F
BD1AC472
BE0DEC1C
3DAB04AB
BD734D6A
BD4E8427
BDA16A48
3CF15832
3CC1A8AC
3D9FF823
3E0E25C8
3D43DDDB
BDCE1BD2
BD544DCB
3DF4E011
3BE1A3F4
3DD94531
3E14538F
BE5B71B9
BDEDDACF
3E29CA5C
BBE4B018
3DCAB042
3DCA0557
BD8BC622
BE09A88B
BCB8DA3C
3BBF0132
3C273F75
3D400325
BDCBA40E
BE0E08AF
3D54B9CB
3E1FF690
BD6670E3
3D65C1C6
3D56733F
3D175297
3D8FE8AB
BD5246BF
BDCFAA47
3DA13123
BD6FE60C
BDE0BED7
BD8A3487
BD932379
BDB3A259
BCB3311A
3D83CC08
BE35A101
3C820C4A
3CA9AC36
3D4D7F0F
BD65B63D
BBFE718B
BDF717DF
3CECD6C3
BC92FF4C
3DA66905
BD0141EA
3C2C18F8
BDDFC979
3DDC25D0
3C5D26B7
3C10FB65
BDE30121
BD33929F
3C2F9EBF
3D4308FF
3D4AB92C
BCB9A5A9
3D3B6998
3D335C18
3C4C07AB
BF0E708F
BD4FA483
3CF29D41
BD1C5E70
BD2AD2DD
BDEB3461
3D85C91D
3CC82385
BD9CF13D
BDA08206
BD346AA1
BBFD21FF
3D7893FB
B924A05E
BCFF23CD
3D1320DA
BD8F8D71
3D02E87D
3C9D388B
3A3BF50E
BE485EC4
3DD700CE
BC1E8C48
BD137F39
3E23D9EC
3C2F8DF8
BCF49492
BAE6AFCD
BD39D6F1
BD26A444
3DB0C1B9
3D23AE25
3D170825
BE2AEEA6
3DD1843C
BCB76D55
3DAC4157
BC995CC8
BDB96074
3B20902E
3E051C5C
3E03F5B6
3DA4F4C7
3BBA5A04
BCC27200
3DA8C1DB
3E421EA3
3D868F4B
BCB760BF
3C9D8C6D
BD8A1837
3E3671AC
3E0960FA
3CF51ACA
3CE1B4BB
BD2F71A8
BCA2D2FE
3CC1E365
BDF77D95
BE1AA6D2
3D4752DB
BD118D26
3D7969E4
BE5BF9C6
3E59C172
3CB52008
3C406E1A
BE15C24C
3DA6D7A5
BDAB8AE3
3E818E54
3E7C98A2
BDC5271C
BD1AA1D7
BCEF60E1
3E106812
3E42B51C
3DD63561
BDF4E22A
BDFD1D47
BD86F71A
3E2F72F7
3E37E73A
3D0CCBC0
3C0997C4
BD493D96
BD759AB7
BE0729F6
BD1F5169
BD876A72
3D8BE37E
BD210492
3D618CE3
BE5418D7
3E2C9C0B
3E2BC98A
3DB62CFE
BE17064F
3C19ED7C
BE11AD64
3DFD1351
3E778AF4
BD176BC2
BD665BEA
BBE8101F
3D7C115E
3DAB09EA
3E62B064
BD0750C2
BBCBD988
BD1AC68B
BD91D14E
3DD7C915
3D4B6D87
3BBA9D1F
BDA2B5A2
BD1A6613
BDB4CB19
3DBF7E80
BDD22C88
3D25F84D
BD064778
3C159E62
BE099956
BC711B61
3D70E6F3
3CFA58F7
BC9142B3
BC1BE09C
BE353EB4
BD2D97B3
3E0AB5C4
3AC7192F
3D1CDB38
3CF0ED3E
3C590E24
BD091AFC
BC372820
3D833A47
3D32FA94
BD74A665
3E6492FF
BE185597
BD90E560
3D410518
3D1F99C4
BCFD6B66
3D20C5A8
3D59D12D
BDF8897F
3C8E68E4
BA982CB2
BCCA98AB
BBA07703
3CBD70A4
3CB25700
BECFC8B0
BD36262D
3D1C0874
BD77BAED
BCCDD0D9
BDE0FF54
3E026528
BD0D1D8A
3D773F31
BDED5CFB
3D03CE21
BDBB3D08
3B537C13
3D6A4B99
3D86AB9B
BDDC92DE
3DBA415F
BCBF6C27
3D29C348
BD017CA2
3D5D9E41
BE461BB0
3DFEFC7A
3D988F43
3D570825
3BC343B7
BDA9068A
BDCAB042
3C2FE1DA
3E061C37
3CF95B36
BBAFC47E
3C560A63
BDA99418
BCA2680A
BDA5479D
3D896894
BDD9F1AE
3DF73E25
3D978898
3D02F512
3C99DCB5
BD6BDF4C
BD0C0054
3CDFB507
3C0DDA49
3E5C8191
3D3F327B
BD7A6EFC
BDE7D912
BD5363F5
3CA1943A
3E845309
3E2C23FB
BE0CDF26
BDFFA2AD
BBE453D2
BD9992C9
3E12F599
3E6C6089
BDB4E443
BD6DFC5D
3D480629
BE0C48AE
BD4ACC0C
BCCB2D90
3E0FA872
BD0EAD0C
3DCF1455
BDC66B1E
BDEF6AD7
3D3312B2
3E3BE48A
3D5DF00B
3D9D8277
3BFB43D9
3B5ED289
3D8473CD
3E38D25F
BC13B7D8
3B5DD6E0
3CF9E16D
3E44C554
3E52480F
BDACA70D
BC14F69D
3DB4677B
BD4E8102
3E1A52F0
3DD46AA1
3CBC4F3C
3B451117
BCD04A30
BE1AA9B5
BDCC20D5
BE27E6F7
3DF4D50F
BD86A6E3
BDA62670
BD132D6F
BD6427C8
BD572ABF
3CB43958
BC2EE200
BD82DA55
3D161F5C
BCE54930
3D434C1B
BC02491B
BD785E81
BE1A9692
3C6C918E
3DED4E4D
3DEE6A77
BDC80BED
BBD1E109
BD06C11A
3D3A311F
3DEB3355
3DFE5C0C
BD02B841
3C215550
BD0FEEF6
BD9EC786
BDDD82FD
BE3DFE33
BAE92D56
3CC8216C
BCF6A0DC
BD46BCE8
BE695AAF
BDA7D780
BDCFE261
3B0F2171
3CD51505
3DC93D96
BE330058
BB79096C
3C3C0A07
BCBEF6B6
BE35BD51
BD603D57
BD2512A9
3D5372A4
BD190082
3E0775FB
BCB61134
BDE17F41
3E48F25A
3D059D99
3E11376D
BCF0110A
3C332CE9
BD33D5BB
BCEC3761
BCA62457
3D4E23AF
3E608312
3D9CBAB6
BE1C3D25
3E840810
BE02B51C
3E380779
3E683C6D
3C92C8C5
BE98DCFD
3E8364BF
BDB5B574
3ED855B9
3E354EF4
BD9C3F81
BE73D7D4
3E2F67B2
BDC2877F
3E9AFBA0
3D906CCA
BCA57C91
BE222C45
3D896356
3C44FC1E
3EA417A9
3D99146E
3CCD8341
3D1C37A4
3D1FDAC7
3D86DD6A
3E8C3CC0
3D4A7504
3DC3CF2D
3BB9F55A
BDEBB2BC
3B134268
3ECDB63D
3DE47E4A
3DCA25D9
BD3315D7
BEC8EE07
3DEDAA93
3EA6616B
BDE486AD
3E4010C7
3E05D895
BEC87C63
3D8DA22F
3DA5931D
3DB4488C
3D9D29DC
3EB3CA10
BE621EE6
BD8FCCE2
BE7580C3
3CBA40D9
3D591687
3E96B980
BDBF5CF2
BDC95747
BEC9DB44
3D8712E4
BCBB9F12
3D6D794A
BE16A594
BCD6EEFA
3E5C6FBD
BCBD48CB
BE16E158
3E20FE48
BE91A6F8
BE310668
BDE6C7EB
BD9C1F86
BE57878B
3EB84F2B
BCA91D9B
BE8ADEA9
BE2AD927
BD0A1CEF
BE0082CF
3E8AC16E
3E536977
BD57E23F
BE73022E
BE0D6345
BD5A2941
3DA3076C
3DD4D402
3CAC2BD8
BDB0A0B2
BD83AD9F
BDD9BE4D
3E35A74C
3DA22899
3E00D0AB
BE06D6DC
BD81AB4B
BC3F8B9C
3E1C8DE3
3E5D5A9F
3E1264E5
BE25D9A1
BD99780C
3DD97AAB
3DED3BF3
3E8ACA36
BD4C1765
BC9F8E3B
3CD1526E
3E316F00
3E24C986
3EF06706
BD9CB146
BDA239E7
BC83B81B
3DA2E87D
3E01EC4E
3E56659D
BA14A2BA
BD529BAE
BDD1D9B2
3C8D62BF
3E28B5CC
3E818B93
3E643FA3
BE7CF9A0
3CD01E26
3D223C00
3E15A709
3EEBCB81
3DE6F827
BE0FA82F
BDAD288D
BCA15769
3E348494
3EE184A1
3D8B0B7C
BD034D27
BDBEAAB0
3D5B0CCC
3E24C4CE
3ED96031
3E0E8FF3
BCCD2913
BE822F6A
3DCA0B1C
3D6ADB40
3E5095AF
3E14794F
BE302752
BCE30447
3D353C58
BD3B99D4
3D3BAFD9
BD258F71
BE869EC3
BC088B54
BD6923E6
3D822E5E
BD6C636B
3DA1D218
BE27C569
BD113511
BDFCDF6A
BCA15337
BD5E5D18
3AF96E16
BDE9F59D
BD84F441
3DBD5800
BD118E32
3E113E81
BD23ED0F
BD9171E3
3BC4BD34
3E3216C6
3CA62025
3E1542A2
BC6AFEE7
BD5AA1D7
3DAB87BE
BDB66F93
3D8B85A5
BE2BAECD
3D5898B3
3E6AF790
3D885447
BE0155D6
3CEC1C1D
BA82F0E1
BD4445AA
BD375A75
BCA4052D
BD24C405
BE23A7DB
3D272863
BE09F7F9
BDDF2DC3
BD6A9C56
3D0332F0
BE662F16
3D3E5D9E
BD1794A7
BE52F7F5
BE4D9946
3E34E26D
BE894D2F
BDFA32B1
3D4C7193
BDA1847F
BDA35B4F
BDC76F2A
BD84651F
BE945EB3
3DD3250B
3DC538EF
3DB68CEF
BD346FDF
BE2F4BA5
BE211D36
3DA2D278
3D0D7386
BBA369FD
BB6B8950
BEC47C74
BEA65CB3
BE0445AA
BC059C8D
BD22E4D2
BC9E55C1
BED9754B
BE93B0E6
3E06805A
BE084E40
BE5B91F7
3E22AC32
BE97A8B5
BEA8DEB1
3D538AC2
BD0D0BB7
BE5A8049
3E66C69B
3E5345D0
BF079C73
3D8AAE29
3DFF01B8
3DE0EF9A
BBAA0019
BEB618F0
BE74F4C7
3DB5592E
BD488F86
3E4C7000
BCFDD441
BEF01E04
BEA1D3AA
BCFA67A5
3D5D883C
3E54E054
BE144956
BEA43EFB
BEA6F1DC
BE02C732
BDD0D520
3DE8E0CA
BD850ACC
BDB0BF1A
BE9AD107
BE0DA05A
BE57EAE6
BDA39E6B
3E980022
3E885E5F
BEDEBEBE
3C9A62ED
BE0A732E
BCF3EEE5
BDAE2C99
BE04EDB3
BDB19A41
3DB0941D
BE02A455
3B2A64C3
BDF80C31
BD2C6DE7
BE369D30
3DBCD680
3D047B24
3DAEA748
BD9A072D
3DA1C151
BE541462
3DE42AED
3D8DA661
3DE909AF
BD32CD7D
3D67125E
BE4239E7
BD336BD3
BD39FECA
3D936B4C
3E38B32D
3E805858
BDD6F4BF
BD83FC44
BD55757D
3D4CC682
3CB0BE0E
3D337C9A
BD3EF9DB
BC82A348
