BE03C9AC
BE96A5D7
BF129DC7
BEF49753
BEA90518
BEA04AD8
3D72E6A7
BC1FE005
3D9723EE
3DD71194
3D4CD749
BEF2A21A
BEEE2BAE
BE8ED04E
BDF987C6
BEC95DD5
3DF7835A
3E2021D1
3E262F5A
3E66C227
BD0F7660
3F4B99F6
3F2B00CE
3ED5C9E6
3F3AD2CC
3F00F1B2
3D6E6645
BEF6B789
BE93D8E0
BE9AD7D8
BD225A68
3DFA7653
BD4D0FE9
3E223B36
3D9055B9
3EC46152
3F28AB60
3DFE3327
3D2CA46E
BE738BCE
3E30A527
3F379496
3E4C2CA1
3D396074
BEA3120A
BE7A2984
3EC03B60
BEAE27E1
BEB2E7F7
BE0F8E3B
BEEFB2EE
3D337DA6
C0A5E782
BCE75793
BEBA8C37
BDB8066C
3ED997C4
3F69B5D9
BE7E7792
3D2E75FF
BC0F9B13
3F134C2B
3F154A3C
BE0E075F
BE98BDCB
BB6C7432
3FABD6D0
3DCA0126
BC68815E
BD8D1633
3F299371
3F65388B
3E0F1C32
BD4523F6
3F251644
3F496F33
3E8DD031
BE8A6C7F
40A65F1A
BF9FC526
BF1FBECB
3B2EB80F
3EEAE07E
3EC3D9EC
BE3BE122
BF616E7A
BFE2AE6D
BF84304D
39B45AE6
3E9123A3
3E50531A
BDA3864D
BF81423E
BF999AB7
3CBCAFB4
3DC9C454
3EBD64B6
3E61C971
BEF35BB4
3E36CCA3
3B71B25F
3D91665A
3D5B2A28
3EAF9B99
BF0E938E
3F3DC4CA
3E1B1855
BE456712
BE79EBA7
3E847086
3EB00D80
BDEADC4D
BF321640
BD43DFF4
3F17368B
3EA62DE8
3DC6DE76
3D3F2B24
3F05AAE7
3EAAE1CE
3D32AE08
3EEEC28B
3F1FF898
3ED5377E
BEC38716
BE6157AC
BE419F80
BDA901D2
BE8950B9
BE87E308
C07DCBB4
BECB5CE2
BD559A31
BDB85597
BCCA600B
3E2325D5
BEC63FBC
BF0BF445
BEE0A2CB
BF1EA077
BEAA4FEC
BE9426FE
BE8DA09D
BE165F52
3ECF1690
3F630A2D
3F5A38A8
3F8D4CA1
3FC560AF
3F96228A
3EADF2AA
3F689796
3F1E8CDF
BCCB295F
BEF7DB0A
BEC92902
